<unk>	0
<s>	0
</s>	0
<pad>	0
<start>	0
<sep>	0
<end>	0
▁있	-0
▁"	-1
▁이	-2
▁수	-3
."	-4
으로	-5
▁제	-6
에서	-7
하는	-8
▁사	-9
▁대	-10
니다	-11
▁있다	-12
▁기	-13
▁가	-14
▁것	-15
▁상	-16
▁전	-17
▁지	-18
▁1	-19
▁그	-20
▁위	-21
▁시	-22
한다	-23
▁정	-24
하고	-25
▁보	-26
▁경	-27
▁2	-28
▁다	-29
▁주	-30
▁중	-31
▁관	-32
▁구	-33
▁및	-34
▁하	-35
▁유	-36
▁연	-37
▁인	-38
▁부	-39
▁자	-40
▁공	-41
하여	-42
▁방	-43
습니다	-44
이다	-45
▁발	-46
▁아	-47
▁의	-48
▁조	-49
▁일	-50
▁등	-51
▁내	-52
▁나	-53
▁모	-54
▁한	-55
▁있는	-56
했다	-57
▁포	-58
▁비	-59
▁개	-60
▁소	-61
▁장	-62
▁고	-63
▁통	-64
(1	-65
▁상기	-66
▁도	-67
▁분	-68
▁저	-69
▁실	-70
▁결	-71
0)	-72
▁않	-73
▁해	-74
▁신	-75
적으로	-76
▁따	-77
▁동	-78
▁또	-79
▁영	-80
▁단	-81
▁사용	-82
▁생	-83
된다	-84
▁포함	-85
▁적	-86
▁어	-87
▁여	-88
▁미	-89
▁선	-90
되는	-91
▁때	-92
▁3	-93
▁대한	-94
▁우	-95
▁서	-96
하기	-97
▁오	-98
▁스	-99
▁바	-100
▁국	-101
▁마	-102
▁없	-103
▁배	-104
적인	-105
▁예	-106
▁감	-107
AA	-108
▁특	-109
▁확	-110
▁세	-111
00	-112
▁회	-113
▁거	-114
▁문	-115
었다	-116
하게	-117
▁원	-118
에는	-119
▁안	-120
▁성	-121
▁같	-122
▁설	-123
▁교	-124
들이	-125
부터	-126
▁제공	-127
▁형	-128
▁경우	-129
▁최	-130
▁필	-131
▁재	-132
▁진	-133
▁반	-134
▁데	-135
▁본	-136
▁요	-137
▁변	-138
였다	-139
▁입	-140
▁위해	-141
▁만	-142
▁추	-143
합니다	-144
되어	-145
▁프	-146
▁무	-147
▁더	-148
▁계	-149
▁한다	-150
▁알	-151
▁표	-152
▁차	-153
도록	-154
▁장치	-155
▁또는	-156
▁현	-157
▁당	-158
에게	-159
▁각	-160
▁매	-161
▁강	-162
▁위한	-163
▁것으로	-164
▁가능	-165
▁증	-166
▁있습니다	-167
▁불	-168
이라	-169
지만	-170
▁따라	-171
▁많	-172
▁후	-173
▁환	-174
▁5	-175
▁4	-176
▁작	-177
▁과	-178
▁연구	-179
▁학	-180
이터	-181
▁방법	-182
입니다	-183
""	-184
(2	-185
▁피	-186
▁'	-187
▁말	-188
▁정보	-189
▁받	-190
▁노	-191
까지	-192
▁할	-193
▁화	-194
▁디	-195
▁물	-196
▁것이다	-197
▁검	-198
▁파	-199
▁높	-200
▁함	-201
▁외	-202
▁통해	-203
▁있어	-204
▁활	-205
▁평	-206
▁필요	-207
▁간	-208
▁하나	-209
▁판	-210
들은	-211
레이	-212
면서	-213
▁우리	-214
▁산	-215
하였다	-216
▁건	-217
▁20	-218
▁직	-219
들의	-220
BB	-221
▁복	-222
▁출	-223
하다	-224
▁금	-225
▁두	-226
▁행	-227
▁대해	-228
▁이상	-229
되고	-230
▁데이터	-231
▁다른	-232
하지	-233
에서는	-234
▁접	-235
▁""	-236
▁처	-237
▁양	-238
▁구성	-239
▁발명	-240
▁관련	-241
▁코	-242
▁것을	-243
▁열	-244
▁때문	-245
성을	-246
▁프로	-247
▁점	-248
▁운	-249
▁한국	-250
▁이용	-251
▁하는	-252
▁측	-253
AAA	-254
으며	-255
▁나타	-256
들을	-257
▁참	-258
▁것이	-259
▁규	-260
▁메	-261
▁치	-262
▁투	-263
▁효	-264
▁결과	-265
▁의해	-266
자의	-267
▁좋	-268
이스	-269
▁용	-270
▁형성	-271
▁역	-272
▁발생	-273
▁명	-274
▁6	-275
▁가지	-276
자가	-277
기를	-278
▁종	-279
▁목	-280
▁들	-281
▁남	-282
▁초	-283
▁집	-284
보다	-285
▁같은	-286
▁문제	-287
▁법	-288
▁사이	-289
▁광	-290
스템	-291
▁제품	-292
▁음	-293
▁식	-294
▁갖	-295
▁10	-296
성이	-297
▁AAA	-298
▁제어	-299
▁약	-300
▁달	-301
▁드	-302
▁크	-303
▁체	-304
▁아니	-305
▁위치	-306
▁임	-307
▁사람	-308
▁되	-309
▁지역	-310
▁에	-311
(3	-312
▁실시	-313
▁패	-314
▁시스템	-315
▁분석	-316
리고	-317
▁결정	-318
수의	-319
▁심	-320
▁절	-321
▁지난	-322
▁다양	-323
▁>	-324
2)	-325
▁타	-326
시키	-327
▁게	-328
▁새	-329
▁시간	-330
▁온	-331
▁관한	-332
러한	-333
▁저희	-334
▁확인	-335
▁근	-336
▁채	-337
▁질	-338
1)	-339
▁7	-340
▁취	-341
지를	-342
▁충	-343
어요	-344
▁함께	-345
지는	-346
▁플	-347
▁손	-348
비스	-349
다고	-350
▁단계	-351
▁가장	-352
▁또한	-353
로부터	-354
에도	-355
이나	-356
00)	-357
▁호	-358
자는	-359
거나	-360
다는	-361
▁올	-362
▁리	-363
▁항	-364
어도	-365
▁못	-366
FF	-367
하면	-368
하며	-369
세요	-370
▁영향	-371
▁청	-372
▁교육	-373
▁카	-374
▁부분	-375
▁선택	-376
이라고	-377
▁영역	-378
▁연결	-379
▁기업	-380
▁관계	-381
▁C	-382
▁8	-383
▁다양한	-384
▁많은	-385
▁대상	-386
▁합	-387
스트	-388
서는	-389
▁201	-390
▁향	-391
▁기술	-392
▁때문에	-393
▁따른	-394
▁편	-395
▁신호	-396
▁A	-397
▁맞	-398
리를	-399
▁협	-400
▁번	-401
▁상태	-402
▁증가	-403
▁속	-404
▁진행	-405
되었다	-406
▁밝	-407
해야	-408
▁살	-409
▁것은	-410
력을	-411
▁제조	-412
▁이미	-413
▁커	-414
▁사회	-415
▁‘	-416
았다	-417
▁적어도	-418
▁잘	-419
▁서비스	-420
▁생각	-421
▁미국	-422
정을	-423
▁구조	-424
▁모든	-425
▁완	-426
▁방향	-427
▁19	-428
도를	-429
하도록	-430
BBB	-431
사를	-432
▁업	-433
▁효과	-434
▁수행	-435
▁다음	-436
▁경제	-437
▁이러한	-438
이고	-439
리는	-440
▁귀	-441
▁9	-442
▁총	-443
▁들어	-444
기에	-445
▁처리	-446
▁앞	-447
▁중국	-448
▁지원	-449
▁북	-450
▁사업	-451
▁논	-452
▁국가	-453
▁변화	-454
부를	-455
▁포함하는	-456
▁각각	-457
▁생성	-458
▁김	-459
▁독	-460
▁모두	-461
▁포함한다	-462
는데	-463
▁“	-464
▁S	-465
▁BBB	-466
▁라	-467
▁정부	-468
▁치료	-469
▁표시	-470
(4	-471
▁중요	-472
▁이루	-473
▁적용	-474
▁담	-475
▁로	-476
▁발명은	-477
▁시작	-478
▁않는	-479
▁큰	-480
라고	-481
▁트	-482
겠습니다	-483
▁상황	-484
으로써	-485
상을	-486
▁현재	-487
자를	-488
▁정보를	-489
▁기능	-490
▁민	-491
도가	-492
▁줄	-493
▁싶	-494
기가	-495
▁된다	-496
▁기준	-497
▁박	-498
사의	-499
▁있을	-500
▁볼	-501
▁걸	-502
▁언	-503
▁설명	-504
▁해당	-505
로운	-506
로서	-507
▁범	-508
▁될	-509
이트	-510
▁그리고	-511
▁평가	-512
▁등을	-513
▁면	-514
▁(	-515
물을	-516
▁축	-517
▁갖는	-518
▁병	-519
▁세계	-520
▁압	-521
▁있고	-522
▁준	-523
▁네	-524
▁순	-525
됐다	-526
▁관리	-527
▁전자	-528
▁찾	-529
▁토	-530
▁12	-531
▁이후	-532
▁하고	-533
▁이동	-534
▁높은	-535
▁개발	-536
▁저장	-537
장은	-538
▁공급	-539
▁만들	-540
▁농	-541
▁제공한다	-542
▁돌	-543
▁센	-544
▁입력	-545
▁배치	-546
▁이상의	-547
장을	-548
▁내용	-549
대로	-550
▁설치	-551
▁I	-552
▁의미	-553
▁권	-554
사가	-555
▁베	-556
▁영향을	-557
▁추가	-558
▁있으며	-559
▁수신	-560
▁당신	-561
▁이번	-562
기도	-563
그램	-564
▁사용자	-565
▁보고	-566
▁태	-567
장이	-568
▁합니다	-569
▁하나의	-570
▁있도록	-571
▁아니라	-572
니까	-573
▁환경	-574
▁낮	-575
▁구비	-576
▁동안	-577
▁알려	-578
▁이루어	-579
▁클	-580
▁이를	-581
▁존	-582
▁조성	-583
▁일반	-584
▁수도	-585
▁브	-586
▁블	-587
19	-588
▁저는	-589
▁창	-590
▁복수의	-591
기는	-592
▁유지	-593
하면서	-594
▁표면	-595
▁밝혔	-596
▁등의	-597
이는	-598
▁고객	-599
부에	-600
사는	-601
▁운영	-602
▁11	-603
되지	-604
▁너	-605
▁감소	-606
▁측정	-607
▁특히	-608
▁없는	-609
됩니다	-610
▁있어서	-611
▁활동	-612
▁200	-613
▁대응	-614
▁같이	-615
▁학생	-616
▁터	-617
▁액	-618
▁참여	-619
▁가능한	-620
▁자신	-621
▁응	-622
이라는	-623
▁밝혔다	-624
▁테	-625
▁활용	-626
▁판단	-627
▁콘	-628
라는	-629
▁특징	-630
식을	-631
▁국내	-632
▁디스	-633
▁많이	-634
▁P	-635
▁레	-636
▁따르	-637
▁새로운	-638
▁허	-639
▁0	-640
▁버	-641
▁생산	-642
▁했다	-643
화를	-644
▁사실	-645
?"	-646
시아	-647
▁인터	-648
체를	-649
▁먹	-650
▁서울	-651
(5	-652
케이	-653
▁전문	-654
▁이어	-655
플레이	-656
▁R	-657
▁탄	-658
▁송	-659
로나	-660
▁정도	-661
되었	-662
▁포함할	-663
체의	-664
4)	-665
▁중심	-666
▁여러	-667
10)	-668
▁과정	-669
▁직접	-670
▁폐	-671
▁통신	-672
▁일부	-673
주의	-674
▁대표	-675
▁애	-676
제를	-677
▁지금	-678
▁아이	-679
▁정책	-680
시에	-681
▁산업	-682
▁뒤	-683
▁누	-684
▁개인	-685
▁지지	-686
▁프로그램	-687
▁최근	-688
▁수준	-689
▁길	-690
▁매우	-691
이며	-692
▁있다는	-693
▁설정	-694
▁보호	-695
▁얻	-696
리가	-697
▁없다	-698
으면	-699
▁이는	-700
시간	-701
▁발명의	-702
20	-703
에서도	-704
▁혼	-705
▁승	-706
▁실시예	-707
▁시장	-708
▁비교	-709
▁공간	-710
치는	-711
▁기초	-712
졌다	-713
▁일본	-714
개의	-715
▁30	-716
▁부재	-717
위원	-718
했습니다	-719
▁날	-720
▁있었다	-721
▁출력	-722
▁고려	-723
▁따르면	-724
▁있다고	-725
▁급	-726
▁결합	-727
▁다시	-728
▁환자	-729
▁마련	-730
하였	-731
기의	-732
들에게	-733
▁그러	-734
원이	-735
인이	-736
해서	-737
▁말했다	-738
▁책	-739
▁기반	-740
이드	-741
▁문화	-742
바이스	-743
으로부터	-744
수를	-745
시키는	-746
▁요소	-747
▁이유	-748
▁T	-749
▁친	-750
▁형태	-751
▁우리는	-752
▁곳	-753
▁국제	-754
▁규정	-755
▁관심	-756
트를	-757
함으로써	-758
▁필요한	-759
▁않고	-760
▁않은	-761
▁그것	-762
에서의	-763
▁안전	-764
아요	-765
▁디스플레이	-766
지고	-767
▁동작	-768
력이	-769
▁디바이스	-770
▁얼	-771
▁존재	-772
▁어떤	-773
3)	-774
음을	-775
났다	-776
▁그래	-777
▁요구	-778
▁고정	-779
▁조사	-780
▁코로나	-781
▁계획	-782
▁투자	-783
료를	-784
▁방식	-785
FFF	-786
▁지방	-787
▁좋은	-788
치를	-789
상의	-790
▁폴	-791
은행	-792
▁나는	-793
▁전기	-794
렇게	-795
▁M	-796
나요	-797
▁기판	-798
▁L	-799
스를	-800
▁15	-801
▁보여	-802
▁건강	-803
▁회전	-804
▁검출	-805
▁가격	-806
▁인식	-807
▁컴	-808
▁등이	-809
▁백	-810
▁금융	-811
▁특정	-812
진다	-813
6)	-814
▁폭	-815
▁개선	-816
▁위험	-817
▁발전	-818
▁작업	-819
▁컨	-820
▁이해	-821
▁기간	-822
워크	-823
20)	-824
▁소비	-825
▁전체	-826
▁기록	-827
▁밀	-828
▁학습	-829
점을	-830
원의	-831
▁감염	-832
▁지속	-833
▁넘	-834
원을	-835
므로	-836
▁암	-837
기업	-838
▁주문	-839
▁페	-840
▁반응	-841
처럼	-842
▁빠	-843
▁자동	-844
▁키	-845
이에	-846
리에	-847
▁흡	-848
▁예정	-849
▁군	-850
▁삼	-851
부분	-852
인의	-853
학교	-854
▁침	-855
▁외부	-856
▁데이터를	-857
▁경험	-858
000	-859
▁제시	-860
들과	-861
▁최대	-862
▁어려	-863
▁이에	-864
▁있었	-865
▁B	-866
▁늘	-867
인을	-868
▁모델	-869
▁">	-870
▁값	-871
▁사건	-872
으로서	-873
▁글	-874
부는	-875
▁E	-876
수가	-877
텐츠	-878
▁보내	-879
▁별	-880
이어	-881
▁차량	-882
▁센서	-883
(100)	-884
▁FFF	-885
립니다	-886
▁여기	-887
▁되는	-888
제로	-889
▁판매	-890
위를	-891
운데	-892
▁감사	-893
지가	-894
▁골	-895
▁방법을	-896
▁동일	-897
▁냉	-898
▁서로	-899
▁프로세	-900
▁막	-901
▁의료	-902
▁공정	-903
들에	-904
▁요청	-905
▁D	-906
교육	-907
▁가지고	-908
▁전극	-909
▁기대	-910
▁금속	-911
명이	-912
▁의한	-913
지에	-914
▁북한	-915
▁제공하는	-916
으나	-917
▁준비	-918
라이	-919
▁학교	-920
▁내부	-921
회의	-922
도의	-923
물의	-924
▁0.	-925
▁비용	-926
▁느	-927
통령	-928
▁힘	-929
▁모듈	-930
▁기존	-931
▁수용	-932
▁역할	-933
▁어떻	-934
▁잠	-935
▁이용하여	-936
▁캐	-937
▁회로	-938
▁끝	-939
▁위하여	-940
이를	-941
▁함유	-942
▁가운데	-943
이가	-944
하시	-945
▁측면	-946
러스	-947
상이	-948
▁첫	-949
▁수단	-950
▁방문	-951
하거나	-952
▁것입니다	-953
▁해결	-954
▁어떻게	-955
▁천	-956
▁제가	-957
▁때문이다	-958
▁극	-959
기관	-960
▁내지	-961
▁도시	-962
▁사이에	-963
드를	-964
▁슬	-965
▁갈	-966
▁관광	-967
(10	-968
▁상품	-969
▁주요	-970
▁했	-971
원은	-972
▁섬	-973
▁N	-974
▁계약	-975
▁휴	-976
지의	-977
▁단말	-978
▁거래	-979
▁대통령	-980
▁대하여	-981
▁변경	-982
라인	-983
▁쉽	-984
▁회사	-985
▁전달	-986
▁100	-987
▁조직	-988
임을	-989
▁전송	-990
▁K	-991
인다	-992
▁활성	-993
5)	-994
▁제한	-995
▁몇	-996
▁스트	-997
▁나타났다	-998
▁이것	-999
▁난	-1000
성과	-1001
▁프레	-1002
▁메모	-1003
▁경기	-1004
▁나타내	-1005
▁인정	-1006
하려	-1007
되며	-1008
▁핵	-1009
▁철	-1010
▁중요한	-1011
▁에너	-1012
의를	-1013
도로	-1014
▁분야	-1015
기로	-1016
▁너무	-1017
▁상대	-1018
▁촉	-1019
▁둘	-1020
▁평균	-1021
▁있어요	-1022
▁눈	-1023
▁번째	-1024
랍니다	-1025
▁도움	-1026
▁혈	-1027
왔다	-1028
트워크	-1029
▁여행	-1030
▁구동	-1031
▁잡	-1032
▁확대	-1033
▁그런	-1034
▁층	-1035
▁영상	-1036
▁효율	-1037
▁그룹	-1038
▁향상	-1039
▁구매	-1040
▁시행	-1041
▁야	-1042
▁바랍니다	-1043
▁오늘	-1044
▁제거	-1045
▁물질	-1046
▁화합	-1047
학적	-1048
부의	-1049
체가	-1050
▁목적	-1051
부가	-1052
▁와	-1053
▁13	-1054
▁이런	-1055
리아	-1056
▁이전	-1057
▁컴퓨	-1058
▁관련된	-1059
▁염	-1060
▁H	-1061
▁동시에	-1062
계를	-1063
▁콘텐츠	-1064
▁없이	-1065
▁공동	-1066
10	-1067
▁처음	-1068
▁보험	-1069
▁된	-1070
▁계속	-1071
▁피해	-1072
▁공연	-1073
정보	-1074
▁대부분	-1075
라도	-1076
스크	-1077
▁만들어	-1078
▁방법은	-1079
▁사례	-1080
),	-1081
▁기본	-1082
▁더욱	-1083
▁개시	-1084
▁조건	-1085
서를	-1086
▁네트워크	-1087
▁방지	-1088
▁필요하다	-1089
도에	-1090
▁강화	-1091
▁F	-1092
▁품	-1093
▁재료	-1094
▁안정	-1095
▁성장	-1096
▁하지만	-1097
네요	-1098
까요	-1099
드는	-1100
하고자	-1101
과의	-1102
가능	-1103
디오	-1104
▁좀	-1105
▁받아	-1106
▁목표	-1107
이지	-1108
▁조정	-1109
▁터치	-1110
▁능	-1111
▁추진	-1112
▁범위	-1113
▁맛	-1114
▁먼	-1115
또는	-1116
▁실행	-1117
▁벌	-1118
▁유닛	-1119
▁착	-1120
▁14	-1121
▁인해	-1122
구를	-1123
어나	-1124
량을	-1125
▁결과를	-1126
▁정치	-1127
▁블록	-1128
▁특별	-1129
▁패턴	-1130
▁자유	-1131
▁제작	-1132
성에	-1133
▁50	-1134
▁악	-1135
가요	-1136
▁몰	-1137
▁억	-1138
▁쓰	-1139
하세요	-1140
가는	-1141
▁되어	-1142
▁이미지	-1143
▁접촉	-1144
▁정의	-1145
30)	-1146
in	-1147
명의	-1148
▁발표	-1149
▁사항	-1150
▁장치는	-1151
화된	-1152
금을	-1153
시킬	-1154
사업	-1155
▁정확	-1156
▁바람	-1157
▁않았	-1158
▁바이	-1159
▁규모	-1160
▁대상으로	-1161
전히	-1162
▁즉	-1163
주시	-1164
▁내에	-1165
▁알고	-1166
▁이하	-1167
▁국민	-1168
▁크게	-1169
▁그는	-1170
▁자연	-1171
케이션	-1172
▁홍	-1173
▁좋아	-1174
▁가스	-1175
국의	-1176
면에	-1177
▁경쟁	-1178
안을	-1179
▁서버	-1180
▁해외	-1181
▁색	-1182
▁주장	-1183
▁보다	-1184
▁바로	-1185
도는	-1186
정의	-1187
▁18	-1188
▁G	-1189
▁보인다	-1190
▁헤	-1191
(1)	-1192
▁가지는	-1193
▁필요가	-1194
▁여성	-1195
마트	-1196
▁살펴	-1197
자인	-1198
▁혹	-1199
▁최고	-1200
▁16	-1201
▁경우에는	-1202
▁표현	-1203
▁풍	-1204
▁메모리	-1205
프트	-1206
▁어느	-1207
▁흐	-1208
▁추정	-1209
었습니다	-1210
▁도입	-1211
시켜	-1212
▁객	-1213
▁머	-1214
▁엔	-1215
▁제품을	-1216
▁올해	-1217
▁등에	-1218
▁연락	-1219
▁조성물	-1220
▁예측	-1221
▁예상	-1222
소를	-1223
스터	-1224
▁사용하여	-1225
▁기관	-1226
▁분리	-1227
▁발견	-1228
(10)	-1229
▁격	-1230
일을	-1231
▁논의	-1232
동을	-1233
수는	-1234
▁정말	-1235
▁레이	-1236
▁획	-1237
▁일정	-1238
하여야	-1239
8)	-1240
▁정상	-1241
▁귀하	-1242
▁강조	-1243
원에	-1244
▁업무	-1245
▁탈	-1246
▁문제가	-1247
▁부담	-1248
▁아직	-1249
▁따라서	-1250
제가	-1251
예요	-1252
▁주변	-1253
▁조절	-1254
▁하여	-1255
▁아래	-1256
시킨	-1257
장의	-1258
▁즐	-1259
플리	-1260
회를	-1261
▁방향으로	-1262
(6	-1263
▁아닌	-1264
▁전압	-1265
문화	-1266
▁폴리	-1267
▁자기	-1268
▁소개	-1269
했다고	-1270
▁이날	-1271
▁섬유	-1272
▁연장	-1273
다면	-1274
품을	-1275
▁사이의	-1276
▁우수	-1277
▁성분	-1278
▁떨	-1279
▁전에	-1280
▁가족	-1281
드립니다	-1282
▁25	-1283
▁사고	-1284
▁접속	-1285
▁최소	-1286
도체	-1287
▁팀	-1288
▁무엇	-1289
er	-1290
(7	-1291
▁검사	-1292
점이	-1293
▁비해	-1294
▁피고	-1295
▁지적	-1296
센터	-1297
장에서	-1298
디어	-1299
▁모습	-1300
▁좌	-1301
▁뿐	-1302
▁몸	-1303
가지	-1304
▁행위	-1305
▁가능성이	-1306
▁상호	-1307
▁충분	-1308
자와	-1309
▁구체	-1310
▁있으	-1311
▁하였다	-1312
▁혼합	-1313
▁공개	-1314
했던	-1315
▁작동	-1316
랜드	-1317
연구	-1318
▁긴	-1319
나라	-1320
▁홈	-1321
▁첨	-1322
▁확진	-1323
▁생활	-1324
▁중앙	-1325
▁비율	-1326
▁엄	-1327
플리케이션	-1328
▁주민	-1329
주는	-1330
▁않았다	-1331
▁작용	-1332
▁사망	-1333
▁내가	-1334
▁대해서	-1335
량이	-1336
(11	-1337
▁확보	-1338
성은	-1339
▁당시	-1340
되면	-1341
▁개념	-1342
▁견	-1343
▁각각의	-1344
▁수지	-1345
체에	-1346
방향	-1347
▁유의	-1348
▁전환	-1349
▁적극	-1350
▁지난해	-1351
▁왜	-1352
on	-1353
▁자신의	-1354
▁사회적	-1355
▁이제	-1356
▁장치를	-1357
▁신호를	-1358
▁진단	-1359
▁낮은	-1360
▁가진	-1361
▁상당	-1362
▁않을	-1363
▁사진	-1364
사회	-1365
▁얼마	-1366
▁에너지	-1367
부와	-1368
▁시설	-1369
▁채널	-1370
▁역할을	-1371
▁접근	-1372
▁확산	-1373
이었다	-1374
해요	-1375
위원회	-1376
상기	-1377
권을	-1378
▁프레임	-1379
▁상승	-1380
관계	-1381
관리	-1382
▁전력	-1383
▁억제	-1384
▁연구는	-1385
▁미치는	-1386
▁위원	-1387
▁인간	-1388
명을	-1389
▁획득	-1390
▁떨어	-1391
▁실시예에	-1392
▁세포	-1393
▁셀	-1394
트의	-1395
▁음식	-1396
▁컴퓨터	-1397
▁해석	-1398
▁식별	-1399
▁기초하여	-1400
▁희	-1401
▁먼저	-1402
▁성공	-1403
▁대학	-1404
▁신청	-1405
▁뉴	-1406
▁외국	-1407
▁사용할	-1408
▁추출	-1409
▁유사	-1410
▁유형	-1411
▁만족	-1412
▁스마트	-1413
0%	-1414
▁예방	-1415
자에	-1416
▁촬	-1417
▁적합	-1418
▁봉	-1419
▁간의	-1420
▁이렇게	-1421
▁노동	-1422
▁제안	-1423
사에	-1424
▁파악	-1425
제의	-1426
▁유기	-1427
▁역시	-1428
▁경찰	-1429
인지	-1430
르게	-1431
하지만	-1432
▁배출	-1433
▁행정	-1434
리의	-1435
▁지정	-1436
▁전망	-1437
▁전략	-1438
상에	-1439
▁무선	-1440
▁감지	-1441
▁마을	-1442
▁계산	-1443
▁찾아	-1444
▁받은	-1445
선을	-1446
▁어렵	-1447
지털	-1448
웨어	-1449
드리	-1450
수록	-1451
▁소득	-1452
▁장애	-1453
성의	-1454
▁우려	-1455
마다	-1456
▁있게	-1457
▁그러나	-1458
치가	-1459
▁실제	-1460
나는	-1461
▁게임	-1462
▁개의	-1463
▁주시	-1464
▁월	-1465
개월	-1466
▁포함하고	-1467
▁그의	-1468
물이	-1469
▁단계를	-1470
▁부족	-1471
▁검토	-1472
▁놓	-1473
한다는	-1474
▁있지만	-1475
▁수업	-1476
하는데	-1477
▁움	-1478
▁인한	-1479
▁법률	-1480
▁상에	-1481
인은	-1482
▁방법에	-1483
▁반영	-1484
▁포함한	-1485
▁감독	-1486
자들이	-1487
▁변환	-1488
셔서	-1489
▁균	-1490
와의	-1491
▁패널	-1492
▁돼	-1493
▁유럽	-1494
▁기능을	-1495
르는	-1496
이크	-1497
▁거의	-1498
▁위해서는	-1499
▁집중	-1500
▁21	-1501
▁납	-1502
동산	-1503
▁설계	-1504
▁17	-1505
▁공유	-1506
▁이름	-1507
지역	-1508
▁송신	-1509
▁협력	-1510
▁전통	-1511
▁노력	-1512
자에게	-1513
▁지급	-1514
,000	-1515
▁우선	-1516
▁자료	-1517
▁저희는	-1518
▁문제를	-1519
밖에	-1520
▁유리	-1521
▁제외	-1522
▁그래서	-1523
▁선수	-1524
장에	-1525
▁러	-1526
▁운동	-1527
▁이야	-1528
▁과정에서	-1529
(2)	-1530
겠다	-1531
한다고	-1532
▁24	-1533
▁중심으로	-1534
▁움직	-1535
▁신뢰	-1536
▁메시	-1537
▁효과를	-1538
페이스	-1539
▁기계	-1540
▁통합	-1541
▁온도	-1542
▁U	-1543
▁절차	-1544
▁삶	-1545
▁전문가	-1546
▁의견	-1547
▁응답	-1548
▁적절	-1549
▁충전	-1550
▁수출	-1551
▁종류	-1552
▁근거	-1553
▁분류	-1554
원에서	-1555
▁참석	-1556
일에	-1557
▁잔	-1558
▁빈	-1559
▁m	-1560
자로	-1561
▁구현	-1562
▁동일한	-1563
▁화학	-1564
▁사용자의	-1565
▁않는다	-1566
프로	-1567
▁됩니다	-1568
메라	-1569
▁있기	-1570
▁석	-1571
▁바람직	-1572
▁서비스를	-1573
▁선정	-1574
▁나오	-1575
▁작은	-1576
▁경기도	-1577
▁혁	-1578
▁배송	-1579
▁비롯	-1580
▁가능하게	-1581
▁하기	-1582
▁연관	-1583
▁온라인	-1584
▁구분	-1585
▁수술	-1586
▁육	-1587
▁디지털	-1588
▁장기	-1589
▁미리	-1590
▁플레이	-1591
스의	-1592
▁애플리케이션	-1593
▁통한	-1594
▁음악	-1595
▁기재	-1596
(110)	-1597
▁장착	-1598
기술	-1599
▁특징으로	-1600
체는	-1601
▁같다	-1602
▁방송	-1603
시설	-1604
▁씨	-1605
▁O	-1606
▁허용	-1607
감을	-1608
▁원고	-1609
(12	-1610
▁보면	-1611
▁쉽게	-1612
▁집단	-1613
▁자동차	-1614
1,	-1615
▁황	-1616
년에	-1617
장치	-1618
▁만큼	-1619
▁구축	-1620
사와	-1621
▁답	-1622
▁현실	-1623
▁않아	-1624
동안	-1625
.5	-1626
▁a	-1627
▁수집	-1628
▁수요	-1629
▁시민	-1630
▁부산	-1631
▁그렇	-1632
바이	-1633
▁반도체	-1634
구의	-1635
▁독립	-1636
지막	-1637
시는	-1638
제는	-1639
▁구성된	-1640
보험	-1641
▁있는데	-1642
▁가능하다	-1643
▁등록	-1644
▁것이라고	-1645
▁40	-1646
▁필터	-1647
▁도움이	-1648
세를	-1649
으로는	-1650
▁시간이	-1651
▁풀	-1652
면을	-1653
▁우리가	-1654
▁사무	-1655
더라도	-1656
▁높아	-1657
▁열린	-1658
▁물론	-1659
▁참가	-1660
로는	-1661
▁대비	-1662
▁갖고	-1663
▁책임	-1664
기와	-1665
▁질환	-1666
▁영화	-1667
▁우리나라	-1668
리적	-1669
▁22	-1670
스가	-1671
법을	-1672
보고	-1673
(200)	-1674
▁경영	-1675
▁가정	-1676
는다	-1677
산업	-1678
▁깊	-1679
액을	-1680
▁되었다	-1681
▁싶습니다	-1682
▁부착	-1683
▁탐	-1684
▁이와	-1685
전자	-1686
함을	-1687
▁은행	-1688
구가	-1689
▁어린	-1690
▁보유	-1691
▁빨	-1692
▁제기	-1693
(14	-1694
트는	-1695
▁제공된다	-1696
▁삽	-1697
▁가져	-1698
▁경우에	-1699
▁성과	-1700
▁주로	-1701
▁형성된	-1702
▁웹	-1703
▁인터넷	-1704
▁스위	-1705
▁안내	-1706
▁돌아	-1707
▁조작	-1708
▁부동산	-1709
▁인증	-1710
리스	-1711
▁검색	-1712
▁플라	-1713
▁대응하는	-1714
▁나타내는	-1715
▁의사	-1716
▁요인	-1717
▁취득	-1718
▁예약	-1719
▁카메라	-1720
▁화합물	-1721
이기	-1722
▁회의	-1723
at	-1724
▁실험	-1725
녕하세요	-1726
▁보건	-1727
▁하지	-1728
▁거예요	-1729
했고	-1730
▁사용하는	-1731
▁의무	-1732
▁오후	-1733
▁필름	-1734
▁스타	-1735
▁내의	-1736
▁케	-1737
▁성형	-1738
▁촬영	-1739
▁사전	-1740
▁개별	-1741
▁공공	-1742
▁팔	-1743
▁실질	-1744
▁조합	-1745
어를	-1746
▁떠	-1747
▁최종	-1748
▁차지	-1749
▁인터페이스	-1750
▁경로	-1751
대를	-1752
▁도전	-1753
회가	-1754
▁품질	-1755
▁스크	-1756
▁받고	-1757
되어야	-1758
▁기후	-1759
▁이익	-1760
▁연속	-1761
트에	-1762
스로	-1763
가를	-1764
스는	-1765
▁미래	-1766
▁있는지	-1767
▁것도	-1768
▁청소	-1769
▁개최	-1770
게요	-1771
어서	-1772
▁녹	-1773
▁행사	-1774
국은	-1775
▁넣	-1776
▁V	-1777
▁복합	-1778
▁앞서	-1779
▁제품은	-1780
(120)	-1781
▁것에	-1782
인데	-1783
▁그녀	-1784
▁수익	-1785
▁행동	-1786
▁말씀	-1787
▁하루	-1788
▁가열	-1789
리지	-1790
▁중간	-1791
▁등으로	-1792
▁하우	-1793
▁제공할	-1794
위에	-1795
▁돈	-1796
▁다음과	-1797
▁통하여	-1798
▁산화	-1799
▁프로세서	-1800
환경	-1801
▁명령	-1802
대의	-1803
50	-1804
▁공기	-1805
▁23	-1806
비를	-1807
▁이들	-1808
▁받을	-1809
로벌	-1810
▁케이	-1811
▁언제	-1812
자들은	-1813
트가	-1814
▁방법이	-1815
▁시간을	-1816
적이	-1817
▁환자의	-1818
▁기억	-1819
▁차이가	-1820
▁담당	-1821
▁예를	-1822
▁렌	-1823
습니까	-1824
▁밸	-1825
▁199	-1826
▁전화	-1827
▁달리	-1828
▁부정	-1829
체로	-1830
원으로	-1831
대에	-1832
▁샘	-1833
▁긍	-1834
지지	-1835
▁예술	-1836
▁소재	-1837
▁해야	-1838
시키고	-1839
▁단위	-1840
▁냉각	-1841
▁내용을	-1842
▁활성화	-1843
▁벽	-1844
이에요	-1845
▁핵심	-1846
▁관찰	-1847
▁나온	-1848
있는	-1849
▁그림	-1850
하기로	-1851
이프	-1852
▁헌	-1853
▁숙	-1854
가가	-1855
▁방식으로	-1856
별로	-1857
re	-1858
▁통과	-1859
▁모드	-1860
산을	-1861
▁초기	-1862
▁소유	-1863
▁전국	-1864
▁팬	-1865
▁사람이	-1866
없이	-1867
▁가공	-1868
격을	-1869
▁한다는	-1870
▁퇴	-1871
▁혹은	-1872
▁긍정	-1873
▁제출	-1874
▁놀	-1875
▁제어부	-1876
▁보조	-1877
▁오는	-1878
▁절연	-1879
▁은	-1880
미터	-1881
▁이벤	-1882
다가	-1883
▁확장	-1884
▁두고	-1885
랫폼	-1886
정이	-1887
▁링	-1888
▁마음	-1889
도와	-1890
▁음성	-1891
▁작성	-1892
▁접착	-1893
▁시스템은	-1894
▁원칙	-1895
(20)	-1896
▁여부	-1897
▁윤	-1898
▁추천	-1899
▁유도	-1900
▁특성	-1901
관은	-1902
▁전시	-1903
▁중에	-1904
▁호텔	-1905
▁보장	-1906
▁독일	-1907
주세요	-1908
▁혁신	-1909
▁관계를	-1910
▁있음을	-1911
▁않다	-1912
되도록	-1913
▁다수의	-1914
▁전해	-1915
▁흐름	-1916
▁후보	-1917
▁작품	-1918
전을	-1919
테이	-1920
는지	-1921
30	-1922
상으로	-1923
▁노출	-1924
되면서	-1925
율이	-1926
레스	-1927
▁여부를	-1928
▁체결	-1929
▁받았	-1930
롤러	-1931
▁광고	-1932
an	-1933
형을	-1934
▁가입	-1935
▁샘플	-1936
▁멀	-1937
▁목적으로	-1938
▁마지막	-1939
▁지나	-1940
되기	-1941
▁뛰	-1942
개발	-1943
▁하면	-1944
▁조금	-1945
▁신경	-1946
▁사람들이	-1947
▁본체	-1948
▁-	-1949
▁기다	-1950
(15	-1951
▁러시아	-1952
▁내에서	-1953
(3)	-1954
▁삽입	-1955
렸다	-1956
▁주목	-1957
▁특성을	-1958
관이	-1959
▁하우징	-1960
▁홀	-1961
간의	-1962
▁가상	-1963
▁발생하는	-1964
▁대해서는	-1965
▁커버	-1966
▁과거	-1967
▁단순	-1968
▁개정	-1969
▁감사합니다	-1970
점에서	-1971
▁한국의	-1972
▁여전히	-1973
▁플랫폼	-1974
시오	-1975
▁점을	-1976
▁확인할	-1977
▁그럼	-1978
▁전류	-1979
▁부여	-1980
▁되고	-1981
▁효과가	-1982
들도	-1983
▁주택	-1984
▁체험	-1985
드의	-1986
▁글로벌	-1987
국이	-1988
처리	-1989
그는	-1990
량의	-1991
▁넓	-1992
▁앞으로	-1993
▁배우	-1994
▁W	-1995
▁저항	-1996
▁있나요	-1997
▁인공	-1998
▁질문	-1999
▁가치	-2000
▁규제	-2001
규모	-2002
▁당사	-2003
▁설명했다	-2004
▁궁	-2005
▁위해서	-2006
했을	-2007
▁길이	-2008
▁귀하의	-2009
▁드러	-2010
훈련	-2011
▁고용	-2012
특히	-2013
al	-2014
▁부탁	-2015
▁시스템을	-2016
일부터	-2017
달러	-2018
안녕하세요	-2019
대가	-2020
▁수입	-2021
en	-2022
어진	-2023
▁근로	-2024
▁항공	-2025
▁과학	-2026
▁후에	-2027
▁탄소	-2028
▁건설	-2029
부모	-2030
구하고	-2031
화가	-2032
▁시험	-2033
▁대출	-2034
바일	-2035
▁같아요	-2036
▁여기서	-2037
▁방사	-2038
▁주식	-2039
▁영업	-2040
▁뭐	-2041
▁프로젝	-2042
▁전했다	-2043
▁의하여	-2044
▁기업의	-2045
▁자리	-2046
▁성능	-2047
▁일이	-2048
▁라인	-2049
▁수가	-2050
▁질병	-2051
▁왔	-2052
그러	-2053
▁두께	-2054
▁항상	-2055
▁장치의	-2056
▁배터	-2057
려고	-2058
자들의	-2059
▁연구에서는	-2060
단계	-2061
▁쌍	-2062
▁표준	-2063
어난	-2064
적이고	-2065
▁루	-2066
만을	-2067
▁이것은	-2068
▁알아	-2069
▁브라	-2070
▁바탕	-2071
▁발생한	-2072
▁시각	-2073
▁합의	-2074
경제	-2075
▁프리	-2076
▁정부가	-2077
▁산출	-2078
▁용이	-2079
▁이용한	-2080
▁없습니다	-2081
률이	-2082
▁휴대	-2083
▁아무	-2084
▁자세	-2085
십시오	-2086
▁챔	-2087
▁시트	-2088
시장	-2089
▁디자인	-2090
▁트랜	-2091
시킨다	-2092
▁조선	-2093
▁어디	-2094
시키기	-2095
▁가까	-2096
▁이론	-2097
▁압력	-2098
▁자본	-2099
롭게	-2100
▁각종	-2101
▁중합	-2102
▁나타낸	-2103
▁언급	-2104
통신	-2105
▁곡	-2106
▁구멍	-2107
▁보안	-2108
▁이뤄	-2109
소득	-2110
▁당신의	-2111
▁예정이다	-2112
하다고	-2113
▁지도	-2114
▁징	-2115
▁발광	-2116
▁반대	-2117
관을	-2118
법에	-2119
▁건조	-2120
▁신규	-2121
▁베이스	-2122
2,	-2123
▁취소	-2124
▁기준으로	-2125
증을	-2126
▁청구	-2127
▁사랑	-2128
▁무역	-2129
▁전반	-2130
▁대신	-2131
학생	-2132
▁비중	-2133
▁압축	-2134
일까지	-2135
▁점에서	-2136
▁관심이	-2137
▁살펴보	-2138
▁장소	-2139
▁임상	-2140
이었	-2141
(8	-2142
▁원하는	-2143
▁반복	-2144
▁주파	-2145
▁펼	-2146
▁재생	-2147
▁코팅	-2148
▁우수한	-2149
기간	-2150
▁보도	-2151
▁개구	-2152
▁갑	-2153
보다는	-2154
▁인쇄	-2155
▁정신	-2156
(9	-2157
▁친구	-2158
▁직원	-2159
▁읽	-2160
▁통계	-2161
▁장치에	-2162
수로	-2163
▁티	-2164
▁밸브	-2165
이하	-2166
재를	-2167
▁가이드	-2168
▁이메	-2169
분을	-2170
▁저희가	-2171
▁식품	-2172
년부터	-2173
▁부품	-2174
7)	-2175
▁없었다	-2176
▁것과	-2177
▁서브	-2178
▁나타나	-2179
▁죽	-2180
▁나라	-2181
▁도와	-2182
▁사용자가	-2183
산화	-2184
▁재정	-2185
▁관계자는	-2186
▁피부	-2187
하신	-2188
서에	-2189
▁바닥	-2190
▁운전	-2191
▁당신이	-2192
▁파라	-2193
▁포함된	-2194
▁않습니다	-2195
▁상부	-2196
명한	-2197
산의	-2198
▁흡수	-2199
▁26	-2200
▁체계	-2201
거래	-2202
▁상관	-2203
▁변화를	-2204
▁다이	-2205
▁흔	-2206
▁손해	-2207
▁퍼	-2208
뿐만	-2209
머니	-2210
▁그렇게	-2211
▁지식	-2212
생활	-2213
▁현지	-2214
▁받는	-2215
▁구조를	-2216
▁마이크	-2217
▁얼마나	-2218
계약	-2219
정책	-2220
▁현대	-2221
그래	-2222
▁과정을	-2223
▁모바일	-2224
등학교	-2225
▁상대적으로	-2226
▁31	-2227
▁1,	-2228
▁수행할	-2229
리카	-2230
세포	-2231
▁둘러	-2232
(20	-2233
사용	-2234
▁숨	-2235
▁향후	-2236
▁임의	-2237
▁경우가	-2238
▁프랑	-2239
년대	-2240
층을	-2241
상은	-2242
▁소프트	-2243
▁우리의	-2244
▁교통	-2245
션을	-2246
▁같습니다	-2247
▁해당하는	-2248
▁연료	-2249
▁붙	-2250
권의	-2251
▁p	-2252
(12)	-2253
하겠습니다	-2254
▁불구하고	-2255
▁c	-2256
니터	-2257
한국	-2258
금융	-2259
▁일반적으로	-2260
▁영국	-2261
어야	-2262
▁도로	-2263
쪽으로	-2264
▁그것은	-2265
▁히	-2266
▁한다고	-2267
▁있지	-2268
▁겪	-2269
▁상이	-2270
▁관심을	-2271
▁맡	-2272
.0	-2273
▁오전	-2274
▁기여	-2275
▁탑	-2276
▁인도	-2277
▁구비한다	-2278
▁형태로	-2279
과정	-2280
아가	-2281
▁종합	-2282
▁어려운	-2283
▁만든	-2284
▁제도	-2285
▁중단	-2286
르고	-2287
실을	-2288
▁달성	-2289
▁배열	-2290
▁27	-2291
▁달러	-2292
▁조립	-2293
▁구비하고	-2294
▁수는	-2295
▁뜻	-2296
▁도착	-2297
▁변동	-2298
▁기타	-2299
▁설립	-2300
함에	-2301
▁제공합니다	-2302
지로	-2303
장과	-2304
▁바이러스	-2305
▁미세	-2306
무를	-2307
▁뇌	-2308
▁바탕으로	-2309
▁울	-2310
리어	-2311
물에	-2312
▁왕	-2313
(13	-2314
▁만나	-2315
러운	-2316
▁액세	-2317
▁연구에서	-2318
▁범죄	-2319
▁분산	-2320
▁중소	-2321
▁위에	-2322
▁완료	-2323
▁인접	-2324
▁갖는다	-2325
스틱	-2326
▁차단	-2327
▁당신은	-2328
▁수소	-2329
▁신고	-2330
▁칼	-2331
▁구성된다	-2332
▁거리	-2333
▁활동을	-2334
▁함유하는	-2335
▁모터	-2336
▁맥	-2337
▁개방	-2338
▁유용	-2339
▁발명에	-2340
년간	-2341
지원	-2342
▁심각	-2343
▁비판	-2344
▁단일	-2345
▁모니터	-2346
▁믿	-2347
▁하며	-2348
▁부분을	-2349
▁28	-2350
(130)	-2351
▁낙	-2352
▁중인	-2353
-1	-2354
▁60	-2355
or	-2356
▁솔	-2357
▁화상	-2358
드릴	-2359
▁안에	-2360
시면	-2361
▁의미한다	-2362
데이터	-2363
▁깨	-2364
▁얘	-2365
대한	-2366
물질	-2367
▁결과는	-2368
튜브	-2369
▁회복	-2370
▁습	-2371
분의	-2372
▁신종	-2373
▁광학	-2374
드가	-2375
▁아니다	-2376
▁형성하는	-2377
▁연구가	-2378
▁수정	-2379
▁소정의	-2380
겠어요	-2381
▁마스크	-2382
▁상태를	-2383
스타	-2384
▁학부모	-2385
le	-2386
▁엘	-2387
▁민주	-2388
▁거야	-2389
▁판결	-2390
적을	-2391
구조	-2392
▁다만	-2393
▁중에서	-2394
작용	-2395
▁웨	-2396
▁기술을	-2397
움을	-2398
비용	-2399
▁덮	-2400
▁가질	-2401
%,	-2402
▁최초	-2403
▁유엔	-2404
▁관련이	-2405
▁융	-2406
계가	-2407
했지만	-2408
또한	-2409
▁텍	-2410
▁넘어	-2411
▁워	-2412
▁소송	-2413
ar	-2414
▁비디오	-2415
▁실제로	-2416
▁출시	-2417
▁분포	-2418
▁참조	-2419
▁보였다	-2420
▁관련하여	-2421
▁경제적	-2422
계획	-2423
▁위반	-2424
화에	-2425
▁분위	-2426
▁역사	-2427
대표	-2428
금이	-2429
항에	-2430
▁올라	-2431
▁적층	-2432
▁반사	-2433
문을	-2434
▁곧	-2435
▁없어	-2436
수에	-2437
▁끼	-2438
▁달라	-2439
▁병원	-2440
법은	-2441
..	-2442
▁흥	-2443
백질	-2444
니스	-2445
▁지역의	-2446
리와	-2447
▁주는	-2448
▁엔진	-2449
▁화면	-2450
▁대체	-2451
하다는	-2452
▁레벨	-2453
▁유효	-2454
▁연구의	-2455
▁정도로	-2456
▁적절한	-2457
▁명의	-2458
▁사용되는	-2459
▁어린이	-2460
▁위치에	-2461
▁구청	-2462
▁한편	-2463
스테	-2464
하려고	-2465
▁오래	-2466
건을	-2467
▁드리	-2468
리그	-2469
▁EU	-2470
한편	-2471
▁수직	-2472
▁가능합니다	-2473
▁게이트	-2474
▁검증	-2475
법의	-2476
▁교환	-2477
활동	-2478
▁렌즈	-2479
▁아파	-2480
▁언론	-2481
▁끌	-2482
로의	-2483
▁모양	-2484
율을	-2485
▁b	-2486
만큼	-2487
▁그들은	-2488
▁미만	-2489
▁정부의	-2490
▁받았다	-2491
▁최적	-2492
▁주세요	-2493
▁브랜드	-2494
▁지불	-2495
서비스	-2496
▁실현	-2497
▁하부	-2498
▁됐다	-2499
▁상황에서	-2500
▁정당	-2501
▁쇼	-2502
▁겨	-2503
과는	-2504
st	-2505
▁빔	-2506
▁오염	-2507
▁망	-2508
(4)	-2509
▁태양	-2510
▁항목	-2511
▁중량	-2512
▁테스트	-2513
▁X	-2514
드에	-2515
▁부모	-2516
▁쉬	-2517
▁첨가	-2518
분이	-2519
준다	-2520
일이	-2521
▁해요	-2522
▁내려	-2523
제에	-2524
▁공식	-2525
▁금지	-2526
▁꾸	-2527
▁민간	-2528
▁빨리	-2529
했다는	-2530
▁전원	-2531
▁정부는	-2532
▁위치를	-2533
▁못한	-2534
▁왔다	-2535
▁인지	-2536
▁그런데	-2537
행위	-2538
▁진짜	-2539
12	-2540
하실	-2541
트로	-2542
류를	-2543
▁결국	-2544
지스터	-2545
▁바와	-2546
아니	-2547
법이	-2548
권이	-2549
▁덕	-2550
▁남아	-2551
▁벗	-2552
▁콜	-2553
▁형성될	-2554
▁컬	-2555
이러한	-2556
▁미디어	-2557
▁봐	-2558
물은	-2559
▁변형	-2560
스럽	-2561
가능한	-2562
▁지난달	-2563
▁문의	-2564
▁방안	-2565
▁조세	-2566
▁회원	-2567
들로	-2568
단이	-2569
▁유전	-2570
▁픽	-2571
회는	-2572
인과	-2573
관의	-2574
▁삼성	-2575
▁거쳐	-2576
바이러스	-2577
기구	-2578
▁기반으로	-2579
일로	-2580
회사	-2581
냈다	-2582
괜찮	-2583
▁이행	-2584
되었습니다	-2585
▁확정	-2586
이번	-2587
▁훈련	-2588
▁환자가	-2589
▁얼굴	-2590
감이	-2591
▁제대로	-2592
▁지연	-2593
▁치료를	-2594
▁값을	-2595
▁나머	-2596
▁아시아	-2597
품은	-2598
단체	-2599
▁분석을	-2600
터를	-2601
여기	-2602
▁추가로	-2603
▁사용될	-2604
이블	-2605
나무	-2606
▁명확	-2607
▁소프트웨어	-2608
▁이유로	-2609
▁간단	-2610
▁이송	-2611
.2	-2612
▁촉매	-2613
▁거주	-2614
호화	-2615
ic	-2616
▁기존의	-2617
▁모형	-2618
▁경향	-2619
했어요	-2620
▁말한다	-2621
▁둔	-2622
▁시도	-2623
▁복수	-2624
▁유입	-2625
▁장비	-2626
조의	-2627
▁도출	-2628
▁<	-2629
(11)	-2630
▁컨트	-2631
▁핀	-2632
식이	-2633
▁한번	-2634
▁유발	-2635
포츠	-2636
▁레이저	-2637
▁표면에	-2638
가의	-2639
▁캡	-2640
▁사업을	-2641
▁보여주	-2642
▁프로그램을	-2643
▁단백질	-2644
▁사실을	-2645
분석	-2646
▁로봇	-2647
▁신용	-2648
▁면역	-2649
(30)	-2650
▁라이	-2651
계의	-2652
▁미국의	-2653
▁교과	-2654
▁교수	-2655
▁유동	-2656
▁증거	-2657
▁부과	-2658
▁파라미터	-2659
▁상태에서	-2660
▁그대로	-2661
▁정보에	-2662
▁과세	-2663
▁채권	-2664
▁자녀	-2665
인트	-2666
▁등장	-2667
층의	-2668
자치	-2669
ion	-2670
▁대중	-2671
▁공격	-2672
차를	-2673
▁스스로	-2674
소의	-2675
▁충분히	-2676
▁미술	-2677
지도	-2678
▁초과	-2679
▁꼭	-2680
소가	-2681
▁자체	-2682
▁걱	-2683
▁영역을	-2684
▁죄	-2685
투자	-2686
▁선호	-2687
▁능력	-2688
▁이미지를	-2689
점에	-2690
▁자원	-2691
▁n	-2692
▁보는	-2693
따라	-2694
11	-2695
▁선행	-2696
▁캠	-2697
마을	-2698
▁인천	-2699
▁유통	-2700
었던	-2701
CC	-2702
▁챔버	-2703
서의	-2704
▁소속	-2705
▁고객님	-2706
▁아주	-2707
이와	-2708
▁보관	-2709
it	-2710
씨가	-2711
도시	-2712
▁뿐만	-2713
▁건축	-2714
▁걸쳐	-2715
▁이내	-2716
▁가지며	-2717
▁남북	-2718
▁벤	-2719
스에	-2720
▁확실	-2721
▁강력	-2722
(16	-2723
▁외국인	-2724
▁앱	-2725
구는	-2726
학년	-2727
▁재판	-2728
▁하락	-2729
▁배경	-2730
▁연계	-2731
시스템	-2732
했으며	-2733
▁현장	-2734
단에	-2735
▁에어	-2736
자리	-2737
▁혐	-2738
▁정리	-2739
▁착용	-2740
▁청소년	-2741
회에	-2742
▁샤	-2743
▁소자	-2744
하기도	-2745
▁불법	-2746
▁대부분의	-2747
▁만에	-2748
▁행복	-2749
▁선거	-2750
드리겠습니다	-2751
▁않도록	-2752
▁합성	-2753
병원	-2754
▁연령	-2755
▁대형	-2756
에요	-2757
화의	-2758
호를	-2759
▁분할	-2760
▁스테	-2761
▁매출	-2762
▁굴	-2763
▁아동	-2764
▁완전히	-2765
지와	-2766
▁케이스	-2767
▁공통	-2768
▁자료를	-2769
▁제주	-2770
해주	-2771
▁것이라는	-2772
▁모습을	-2773
▁싶은	-2774
▁집행	-2775
▁빠른	-2776
15	-2777
▁이루어지는	-2778
이지만	-2779
세가	-2780
▁이곳	-2781
▁통제	-2782
▁지속적으로	-2783
▁겁	-2784
스코	-2785
▁일을	-2786
조사	-2787
▁적합한	-2788
▁동작을	-2789
지방	-2790
단의	-2791
그룹	-2792
▁선택된	-2793
▁건물	-2794
고를	-2795
▁29	-2796
명으로	-2797
페이	-2798
체인	-2799
▁불안	-2800
스토	-2801
겠다는	-2802
▁사태	-2803
▁누구	-2804
정부	-2805
▁촉진	-2806
▁비슷	-2807
▁투입	-2808
▁빌	-2809
▁핸	-2810
▁당뇨	-2811
체와	-2812
단을	-2813
전에	-2814
▁외교	-2815
▁「	-2816
거리	-2817
▁상황을	-2818
▁대기	-2819
▁조치	-2820
▁일치	-2821
▁어떠	-2822
▁관광객	-2823
률을	-2824
▁재산	-2825
▁쿠	-2826
드시	-2827
▁영역에	-2828
줍니다	-2829
▁잉	-2830
▁연구를	-2831
▁익	-2832
치고	-2833
▁예산	-2834
▁결제	-2835
▁펌	-2836
▁이야기	-2837
▁얻을	-2838
▁원인	-2839
▁제품의	-2840
트남	-2841
▁나노	-2842
▁정보는	-2843
▁나타난	-2844
업을	-2845
▁배치된	-2846
▁택	-2847
▁아름	-2848
▁수학	-2849
▁강조했다	-2850
결과	-2851
▁자산	-2852
▁나누	-2853
▁2018	-2854
▁발달	-2855
▁마이크로	-2856
회에서	-2857
▁밤	-2858
▁반면	-2859
▁위치한	-2860
▁희망	-2861
▁돌출	-2862
▁배터리	-2863
▁늦	-2864
구에	-2865
다른	-2866
▁접합	-2867
▁구입	-2868
▁괜찮	-2869
▁해서	-2870
▁파일	-2871
▁되면	-2872
▁발생할	-2873
불어	-2874
▁특수	-2875
▁측면에서	-2876
(300)	-2877
한테	-2878
▁간호	-2879
▁정보가	-2880
리콘	-2881
하던	-2882
운드	-2883
▁변수	-2884
▁입자	-2885
▁"""	-2886
해도	-2887
▁부문	-2888
하려는	-2889
차원	-2890
복지	-2891
이퍼	-2892
ing	-2893
▁이루어진	-2894
▁2015	-2895
어가	-2896
▁동물	-2897
라우	-2898
하였고	-2899
베이스	-2900
측에	-2901
▁자주	-2902
▁논란	-2903
▁화장	-2904
▁빠르게	-2905
▁구성되는	-2906
만이	-2907
크를	-2908
▁규칙	-2909
▁빛	-2910
화하는	-2911
▁진출	-2912
받은	-2913
도이다	-2914
▁가진다	-2915
▁니	-2916
조에	-2917
▁필수	-2918
훨씬	-2919
▁근무	-2920
▁프랑스	-2921
▁특별한	-2922
▁그냥	-2923
▁섭	-2924
▁만드는	-2925
▁같아	-2926
▁정확한	-2927
18	-2928
정에	-2929
물관	-2930
량은	-2931
▁자율	-2932
▁지시	-2933
▁일으	-2934
▁198	-2935
▁이거	-2936
▁결과가	-2937
▁통해서	-2938
▁줄어	-2939
선이	-2940
▁보도했다	-2941
지면서	-2942
루미	-2943
▁유사한	-2944
CT	-2945
▁훨씬	-2946
개를	-2947
위가	-2948
▁투명	-2949
▁폐쇄	-2950
▁혜	-2951
▁홍보	-2952
우리	-2953
▁방출	-2954
▁이외	-2955
▁이온	-2956
▁젊	-2957
▁불편	-2958
▁편리	-2959
되거나	-2960
▁드릴	-2961
▁수밖에	-2962
.3	-2963
▁잘못	-2964
▁다르	-2965
▁헤드	-2966
점은	-2967
▁없을	-2968
씨는	-2969
▁푸	-2970
었고	-2971
▁중국의	-2972
▁대구	-2973
제품	-2974
▁방법으로	-2975
▁때는	-2976
▁교사	-2977
억원	-2978
종의	-2979
특별	-2980
▁노래	-2981
▁이유는	-2982
보는	-2983
▁그동안	-2984
거든	-2985
▁많다	-2986
▁많아	-2987
▁있으면	-2988
▁사이에서	-2989
▁시즌	-2990
▁조례	-2991
▁그것을	-2992
▁헌법	-2993
▁포장	-2994
▁있던	-2995
오는	-2996
▁됐	-2997
▁옥	-2998
▁문제는	-2999
▁투여	-3000
대상	-3001
▁영양	-3002
▁복잡	-3003
▁도움을	-3004
▁의존	-3005
가스	-3006
하자	-3007
▁환자는	-3008
▁제약	-3009
▁입장	-3010
▁모르	-3011
▁수립	-3012
▁카드	-3013
▁짧	-3014
▁소스	-3015
▁스마트폰	-3016
▁구성되어	-3017
▁타이	-3018
▁플라스틱	-3019
▁지표	-3020
▁연결된	-3021
▁보이는	-3022
▁스프	-3023
중에	-3024
▁모니터링	-3025
▁진동	-3026
▁주파수	-3027
60	-3028
▁2016	-3029
▁덧	-3030
▁시사	-3031
▁가는	-3032
▁임대	-3033
▁나서	-3034
시가	-3035
▁스크린	-3036
▁텍스트	-3037
▁상담	-3038
▁사항을	-3039
이자	-3040
기준	-3041
▁신속	-3042
40)	-3043
▁비즈	-3044
쪽에	-3045
▁종료	-3046
▁세부	-3047
▁메뉴	-3048
▁중소기업	-3049
▁신체	-3050
어링	-3051
▁방향을	-3052
이란	-3053
이야	-3054
▁회사의	-3055
히려	-3056
면의	-3057
▁형태의	-3058
▁일단	-3059
▁상이한	-3060
▁단체	-3061
▁브라질	-3062
학습	-3063
▁찍	-3064
값을	-3065
재의	-3066
▁상태로	-3067
▁없다는	-3068
액이	-3069
▁그가	-3070
리즘	-3071
▁공무	-3072
▁경화	-3073
▁언어	-3074
▁영상을	-3075
▁적응	-3076
▁갖추	-3077
▁지배	-3078
▁방안을	-3079
▁주행	-3080
▁본격	-3081
▁나타낸다	-3082
질환	-3083
▁용기	-3084
▁코어	-3085
▁매년	-3086
km	-3087
금의	-3088
▁최고의	-3089
▁고무	-3090
께서	-3091
▁장치가	-3092
▁되지	-3093
▁기념	-3094
점으로	-3095
▁비행	-3096
▁오디오	-3097
해진	-3098
▁동의	-3099
▁여름	-3100
시켰	-3101
▁테이블	-3102
▁오른	-3103
▁지금까지	-3104
▁나머지	-3105
▁이탈	-3106
.4	-3107
▁스토	-3108
있다	-3109
▁추적	-3110
먼트	-3111
진이	-3112
▁폐기	-3113
▁충족	-3114
화와	-3115
▁등과	-3116
▁그들의	-3117
▁없다고	-3118
▁종류의	-3119
▁욕	-3120
비가	-3121
▁갈등	-3122
▁차별	-3123
▁내부에	-3124
▁반드시	-3125
▁비트	-3126
▁의심	-3127
▁무료	-3128
▁더불어	-3129
평가	-3130
선의	-3131
▁궁금	-3132
정한	-3133
▁겁니다	-3134
▁보상	-3135
▁절단	-3136
▁하는데	-3137
찬가지	-3138
명은	-3139
▁알려져	-3140
▁가능성을	-3141
▁탄성	-3142
▁입원	-3143
한다면	-3144
(18	-3145
▁2017	-3146
▁차이를	-3147
▁법적	-3148
▁바라	-3149
▁패키	-3150
▁액체	-3151
▁베트남	-3152
▁발행	-3153
▁때까지	-3154
▁자신이	-3155
차가	-3156
▁듣	-3157
▁알려졌다	-3158
▁이들의	-3159
년까지	-3160
물로	-3161
▁구체적인	-3162
▁실리콘	-3163
▁적이	-3164
▁느끼	-3165
▁인가	-3166
▁결정하는	-3167
▁자가	-3168
보호	-3169
ED	-3170
▁양성	-3171
▁벨	-3172
▁완전	-3173
▁드립니다	-3174
▁운송	-3175
40	-3176
▁높다	-3177
▁액세스	-3178
▁그에	-3179
▁참고	-3180
사에서	-3181
로를	-3182
정은	-3183
▁계획이다	-3184
▁기회를	-3185
케팅	-3186
소에	-3187
▁상의	-3188
로부터의	-3189
형의	-3190
▁힘들	-3191
▁결과에	-3192
▁분명	-3193
론을	-3194
생님	-3195
티브	-3196
▁비용을	-3197
▁센터	-3198
(5)	-3199
력의	-3200
▁귀사의	-3201
▁조성물을	-3202
▁논문	-3203
▁실질적으로	-3204
관광	-3205
▁잠재	-3206
▁비롯한	-3207
▁높이	-3208
▁소비자	-3209
▁뒷	-3210
▁혹시	-3211
▁완화	-3212
▁검찰	-3213
▁주입	-3214
었어요	-3215
.1	-3216
업체	-3217
▁분말	-3218
▁주관	-3219
.8	-3220
▁주도	-3221
▁부탁드립니다	-3222
▁틀	-3223
▁어렵다	-3224
▁보통	-3225
▁인근	-3226
▁척	-3227
▁때에는	-3228
▁전혀	-3229
▁이중	-3230
원과	-3231
▁오히려	-3232
안전	-3233
▁혜택	-3234
▁데이터의	-3235
▁의하면	-3236
▁당뇨병	-3237
제와	-3238
▁인구	-3239
▁휘	-3240
▁움직임	-3241
.7	-3242
▁것인	-3243
▁정치적	-3244
운동	-3245
자기	-3246
장애	-3247
▁조명	-3248
아야	-3249
▁사유	-3250
▁못하고	-3251
▁싱	-3252
▁특허	-3253
▁개시된다	-3254
▁관통	-3255
▁시청	-3256
▁적은	-3257
▁유체	-3258
▁권한	-3259
50)	-3260
▁비교적	-3261
▁관하여	-3262
섬유	-3263
▁대규모	-3264
▁트랜지스터	-3265
▁명이	-3266
▁그리	-3267
▁2019	-3268
▁전면	-3269
▁수사	-3270
▁생성된	-3271
▁직업	-3272
▁존재하는	-3273
▁원자	-3274
▁속에서	-3275
▁대책	-3276
▁주의	-3277
플루	-3278
▁이용할	-3279
겠다고	-3280
▁밖	-3281
▁유의한	-3282
니아	-3283
전이	-3284
▁자극	-3285
▁데이터베이스	-3286
▁내년	-3287
▁들어가	-3288
▁아마	-3289
▁어떠한	-3290
▁아침	-3291
▁국립	-3292
▁기획	-3293
ol	-3294
▁노인	-3295
▁구간	-3296
(14)	-3297
▁나온다	-3298
▁없고	-3299
▁마찬가지	-3300
▁슈	-3301
▁불과	-3302
▁화학식	-3303
사항	-3304
▁주주	-3305
▁선보	-3306
▁기울	-3307
5%	-3308
▁걱정	-3309
▁의견을	-3310
!"	-3311
▁70	-3312
▁하나를	-3313
▁기기	-3314
신을	-3315
▁저장된	-3316
▁생존	-3317
.6	-3318
▁동기	-3319
▁칩	-3320
▁편안	-3321
주택	-3322
▁옷	-3323
고가	-3324
▁케이블	-3325
▁결정할	-3326
▁작업을	-3327
▁봤	-3328
▁맞는	-3329
▁예에	-3330
▁느낌	-3331
▁고유	-3332
▁대법	-3333
▁채무	-3334
사로	-3335
분에	-3336
장으로	-3337
▁결혼	-3338
▁음식을	-3339
▁덧붙	-3340
증이	-3341
▁긍정적인	-3342
▁시스템의	-3343
▁새로	-3344
적이다	-3345
▁중의	-3346
▁법인	-3347
조합	-3348
라마	-3349
▁입법	-3350
▁저하	-3351
▁적극적으로	-3352
▁당해	-3353
▁젊은	-3354
▁전쟁	-3355
▁의미를	-3356
▁할당	-3357
잖아요	-3358
▁변화가	-3359
르기	-3360
▁생각합니다	-3361
현지	-3362
하였으며	-3363
함과	-3364
NA	-3365
▁창출	-3366
▁사용한	-3367
▁있어야	-3368
치지	-3369
▁나왔다	-3370
▁답변	-3371
▁대통령이	-3372
▁전도	-3373
▁옮	-3374
▁펌프	-3375
▁검사를	-3376
코딩	-3377
사이트	-3378
▁저렴	-3379
▁500	-3380
▁지역에	-3381
경기	-3382
▁본다	-3383
리로	-3384
▁포함되어	-3385
▁AI	-3386
▁잃	-3387
시고	-3388
▁이의	-3389
▁지원을	-3390
▁노드	-3391
▁수행하는	-3392
▁알루미	-3393
▁설정된	-3394
▁강한	-3395
▁다루	-3396
▁사람들은	-3397
▁부분에	-3398
▁일상	-3399
시의	-3400
▁받지	-3401
▁기구	-3402
술한	-3403
▁포함하며	-3404
▁지구	-3405
금은	-3406
▁경험을	-3407
▁부드	-3408
식으로	-3409
일의	-3410
70	-3411
▁물품	-3412
▁제공하고	-3413
▁일어나	-3414
단은	-3415
실이	-3416
세계	-3417
▁그러한	-3418
수와	-3419
들에서	-3420
▁일부를	-3421
인가요	-3422
이즈	-3423
.9	-3424
▁꿈	-3425
▁삶의	-3426
▁섹	-3427
▁술	-3428
▁농업	-3429
서가	-3430
식에	-3431
200	-3432
탱크	-3433
▁불가	-3434
▁채택	-3435
▁구체적으로	-3436
',	-3437
▁잇	-3438
▁드라이	-3439
▁완성	-3440
▁유명	-3441
만원	-3442
▁밝혀	-3443
▁기업이	-3444
▁펀	-3445
액의	-3446
▁피드	-3447
가락	-3448
▁직무	-3449
▁바이오	-3450
▁호흡	-3451
▁꽃	-3452
(140)	-3453
▁버튼	-3454
▁살아	-3455
▁질량	-3456
▁학생들이	-3457
▁주셔서	-3458
다운	-3459
▁공간을	-3460
▁t	-3461
▁다중	-3462
▁구비한	-3463
역을	-3464
▁싸	-3465
▁300	-3466
▁해도	-3467
이면	-3468
▁끊	-3469
▁형성되어	-3470
▁있으나	-3471
데이트	-3472
▁보이고	-3473
▁충분한	-3474
▁무기	-3475
▁차이	-3476
▁파트	-3477
▁지능	-3478
▁한정	-3479
▁배치될	-3480
예술	-3481
▁협의	-3482
▁벡	-3483
▁제품에	-3484
▁나와	-3485
▁중요하다	-3486
▁가중	-3487
▁위협	-3488
▁멀티	-3489
▁할인	-3490
력에	-3491
▁실패	-3492
내는	-3493
현재	-3494
▁스케	-3495
결정	-3496
▁있다면	-3497
활성	-3498
▁겨울	-3499
▁튜브	-3500
이라며	-3501
▁단부	-3502
대는	-3503
예를	-3504
▁크기	-3505
▁선발	-3506
레인	-3507
로그	-3508
판을	-3509
▁섭취	-3510
상과	-3511
▁픽셀	-3512
9)	-3513
구청	-3514
▁생태	-3515
▁경우는	-3516
▁차례	-3517
경을	-3518
▁회사는	-3519
부재	-3520
▁찬	-3521
라이언	-3522
격이	-3523
위의	-3524
13	-3525
▁침해	-3526
▁상황에	-3527
스러운	-3528
로서의	-3529
진을	-3530
▁인사	-3531
▁출신	-3532
▁것처럼	-3533
식의	-3534
질을	-3535
▁재료를	-3536
항의	-3537
▁LG	-3538
▁마케팅	-3539
▁상황이	-3540
연합	-3541
▁약속	-3542
▁다소	-3543
▁판정	-3544
따라서	-3545
▁이벤트	-3546
(210)	-3547
▁디자	-3548
▁기지	-3549
▁원격	-3550
▁저녁	-3551
린다	-3552
▁종양	-3553
▁듯	-3554
▁엘리	-3555
▁변화에	-3556
하게는	-3557
▁"19	-3558
▁보존	-3559
약을	-3560
▁모델을	-3561
▁코드	-3562
서울	-3563
▁고민	-3564
하시면	-3565
▁이사	-3566
▁타당	-3567
▁거부	-3568
(17	-3569
▁스포츠	-3570
▁시스템에	-3571
만의	-3572
▁컨트롤러	-3573
음파	-3574
▁오브	-3575
▁일반적인	-3576
▁매개	-3577
▁출발	-3578
▁있을까요	-3579
▁경우에도	-3580
▁업데이트	-3581
니즘	-3582
▁펜	-3583
▁편의	-3584
▁치환	-3585
▁업체	-3586
▁오프	-3587
▁심각한	-3588
소송	-3589
▁년	-3590
▁알킬	-3591
소는	-3592
▁청년	-3593
리오	-3594
보건	-3595
만으로	-3596
▁연산	-3597
▁하겠습니다	-3598
과학	-3599
▁순환	-3600
▁TV	-3601
▁해제	-3602
▁생성하는	-3603
▁예비	-3604
▁군사	-3605
갔다	-3606
▁코로나바이러스	-3607
▁실내	-3608
이션	-3609
▁않으면	-3610
▁커피	-3611
▁돕	-3612
CD	-3613
▁옵	-3614
▁실시간	-3615
▁수준의	-3616
거든요	-3617
래의	-3618
▁옆	-3619
▁물을	-3620
▁분배	-3621
상태	-3622
▁북한의	-3623
▁지하	-3624
▁완벽	-3625
▁생성할	-3626
▁실시예에서	-3627
두고	-3628
▁가동	-3629
▁엄마	-3630
▁찾는	-3631
▁진입	-3632
▁컴퓨팅	-3633
▁보증	-3634
▁수평	-3635
▁분해	-3636
ro	-3637
▁가치를	-3638
세의	-3639
률은	-3640
▁80	-3641
▁플레이트	-3642
▁이용하는	-3643
▁임의의	-3644
법상	-3645
▁조치를	-3646
▁뉴욕	-3647
▁등은	-3648
▁취약	-3649
▁부분이	-3650
▁이끌	-3651
mm	-3652
▁소통	-3653
이미	-3654
지게	-3655
효과	-3656
▁도달	-3657
▁한국에서	-3658
▁정지	-3659
▁유치	-3660
-2	-3661
▁이른	-3662
거운	-3663
화할	-3664
▁단말기	-3665
▁지출	-3666
▁덧붙였다	-3667
▁사람은	-3668
▁32	-3669
▁여자	-3670
▁유연	-3671
▁실천	-3672
▁밀봉	-3673
테나	-3674
▁돈을	-3675
▁메인	-3676
▁남성	-3677
공간	-3678
▁생체	-3679
▁그러면	-3680
▁스위치	-3681
했는데	-3682
셈블	-3683
▁얘기	-3684
▁관련해	-3685
회로	-3686
▁기반하여	-3687
▁용이하게	-3688
▁형성된다	-3689
▁최대한	-3690
▁경계	-3691
TA	-3692
▁멤	-3693
▁우승	-3694
▁이용해	-3695
(21	-3696
로드	-3697
▁나가	-3698
▁부분은	-3699
군의	-3700
하시는	-3701
▁복지	-3702
▁마무	-3703
▁여기에	-3704
▁팽	-3705
▁국가의	-3706
▁쪽	-3707
▁시간에	-3708
시를	-3709
▁절대	-3710
리기	-3711
국에	-3712
▁기능이	-3713
▁보완	-3714
▁활발	-3715
▁운용	-3716
▁뚜	-3717
▁풍부	-3718
표를	-3719
▁콘텐츠를	-3720
▁관측	-3721
et	-3722
▁아프	-3723
려면	-3724
▁나무	-3725
▁손상	-3726
되었고	-3727
주를	-3728
▁합병	-3729
▁자치	-3730
▁졸	-3731
▁사라	-3732
▁감정	-3733
▁정책을	-3734
▁나선	-3735
세기	-3736
▁수신된	-3737
대학	-3738
▁화합물을	-3739
▁긴급	-3740
주가	-3741
▁용융	-3742
▁빅	-3743
의료	-3744
린더	-3745
▁제품이	-3746
▁구성하는	-3747
▁파이프	-3748
지난	-3749
류의	-3750
드로	-3751
▁펄	-3752
▁자금	-3753
장님	-3754
▁유출	-3755
▁상당히	-3756
▁찾고	-3757
▁바다	-3758
▁횡	-3759
당이	-3760
월부터	-3761
▁관점에서	-3762
▁영어	-3763
▁가까운	-3764
스와	-3765
▁문제에	-3766
▁격리	-3767
지면	-3768
전문	-3769
▁SK	-3770
NS	-3771
▁메시지를	-3772
▁평면	-3773
▁2,	-3774
▁비즈니스	-3775
▁투과	-3776
하나	-3777
든지	-3778
하셨	-3779
▁한계	-3780
력과	-3781
▁프린	-3782
인에	-3783
▁피드백	-3784
행을	-3785
▁점이	-3786
▁대통령은	-3787
▁알고리즘	-3788
▁통일	-3789
국가	-3790
▁s	-3791
▁있었던	-3792
▁주고	-3793
▁방식을	-3794
▁처음으로	-3795
▁영역의	-3796
▁고려하여	-3797
▁목록	-3798
기능	-3799
▁관련한	-3800
▁딸	-3801
으면서	-3802
▁어셈블	-3803
▁내용이	-3804
▁스트림	-3805
el	-3806
▁d	-3807
ac	-3808
류가	-3809
▁데이터에	-3810
▁교육을	-3811
▁우려가	-3812
▁싶어요	-3813
럼프	-3814
▁못하는	-3815
▁학생들의	-3816
스테르	-3817
인들이	-3818
▁보수	-3819
▁인하여	-3820
▁공중	-3821
▁기후변	-3822
▁제조하는	-3823
월에	-3824
▁트리	-3825
▁소정	-3826
▁죄송	-3827
▁이전에	-3828
▁물질을	-3829
섰다	-3830
▁지역에서	-3831
▁판독	-3832
(6)	-3833
▁롤	-3834
▁스피	-3835
▁생물	-3836
▁흘	-3837
▁권리	-3838
▁구비하는	-3839
컨대	-3840
액은	-3841
▁불가능	-3842
스럽게	-3843
▁교체	-3844
▁취업	-3845
▁열리는	-3846
▁0.0	-3847
14	-3848
▁시기	-3849
▁2014	-3850
▁가격이	-3851
▁그녀는	-3852
쳤다	-3853
안이	-3854
▁관계가	-3855
▁처리를	-3856
▁흥미	-3857
프라	-3858
이익	-3859
▁알루미늄	-3860
실에	-3861
▁파트너	-3862
ig	-3863
(30	-3864
▁쌓	-3865
▁펼쳐	-3866
▁즉시	-3867
▁창의	-3868
▁초래	-3869
▁늘어나	-3870
▁했습니다	-3871
▁베이	-3872
▁포함하여	-3873
▁극복	-3874
▁점검	-3875
▁주시기	-3876
영상	-3877
▁처벌	-3878
▁목소	-3879
추어	-3880
▁회수	-3881
▁안테나	-3882
조를	-3883
▁신장	-3884
▁구역	-3885
우는	-3886
▁맞춤	-3887
▁강력한	-3888
았습니다	-3889
하기에	-3890
▁시대	-3891
판결	-3892
▁개혁	-3893
가에	-3894
▁경사	-3895
▁용접	-3896
▁첨부	-3897
▁동반	-3898
16	-3899
듯이	-3900
라우드	-3901
▁외측	-3902
▁선박	-3903
▁2000	-3904
▁맞춰	-3905
II	-3906
▁창업	-3907
(22)	-3908
▁있습니까	-3909
부에서	-3910
▁유일	-3911
▁사이즈	-3912
화학	-3913
▁사용자는	-3914
▁개입	-3915
▁안보	-3916
▁요리	-3917
▁가로	-3918
▁흑	-3919
▁아버	-3920
▁크다	-3921
▁능력을	-3922
여기서	-3923
력은	-3924
▁형상	-3925
제어	-3926
해보	-3927
경찰	-3928
▁보여준다	-3929
▁요즘	-3930
▁무슨	-3931
▁원심	-3932
▁대한민	-3933
▁초음파	-3934
▁재무	-3935
▁사실상	-3936
▁상세	-3937
▁주차	-3938
▁비율이	-3939
▁어레이	-3940
▁재미	-3941
▁개인의	-3942
▁매일	-3943
인에게	-3944
▁명시	-3945
▁증명	-3946
▁코일	-3947
▁형사	-3948
▁규정하고	-3949
▁인권	-3950
▁선택할	-3951
▁속도	-3952
율은	-3953
▁이게	-3954
▁이상이	-3955
▁양의	-3956
▁힘을	-3957
▁발현	-3958
▁이하의	-3959
cm	-3960
▁있으므로	-3961
▁컬러	-3962
▁최저	-3963
▁노즐	-3964
▁임계	-3965
회담	-3966
▁충돌	-3967
▁통화	-3968
재가	-3969
▁데이터는	-3970
▁오랜	-3971
치료	-3972
▁평가를	-3973
▁하드	-3974
시킴	-3975
▁사는	-3976
▁전개	-3977
▁결정된	-3978
▁지켜	-3979
▁배선	-3980
25	-3981
▁꾸준	-3982
▁방침	-3983
▁제외한	-3984
▁뜨	-3985
▁효과적으로	-3986
▁요건	-3987
▁즐길	-3988
방향으로	-3989
성도	-3990
▁예상된다	-3991
▁삭	-3992
▁사람의	-3993
▁점차	-3994
▁추구	-3995
▁타입	-3996
▁주기	-3997
▁"20	-3998
▁미칠	-3999
▁구성요	-4000
▁나아가	-4001
▁설치된	-4002
▁암호화	-4003
림픽	-4004
되었으며	-4005
▁지적했다	-4006
▁수상	-4007
아시아	-4008
주민	-4009
(150)	-4010
▁매트	-4011
▁가구	-4012
▁하나는	-4013
1-	-4014
▁만약	-4015
▁와이어	-4016
▁하나로	-4017
▁강제	-4018
▁오브젝	-4019
▁통상	-4020
3,	-4021
형으로	-4022
▁정밀	-4023
▁전파	-4024
▁혐의	-4025
▁마무리	-4026
▁요소를	-4027
▁선생님	-4028
많은	-4029
▁앉	-4030
▁분쟁	-4031
▁빼	-4032
▁백신	-4033
▁한쪽	-4034
▁효율적으로	-4035
▁관객	-4036
▁상품을	-4037
▁식당	-4038
▁전지	-4039
▁낮아	-4040
▁먹을	-4041
▁음료	-4042
잖아	-4043
▁묻	-4044
▁말을	-4045
▁공정을	-4046
▁미친	-4047
▁당연	-4048
전의	-4049
▁웃	-4050
▁배제	-4051
▁쌍의	-4052
▁관람	-4053
▁고령	-4054
▁승인	-4055
▁대화	-4056
▁민감	-4057
▁대상이	-4058
면이	-4059
▁물리	-4060
자산	-4061
▁이번에	-4062
▁제어할	-4063
▁천연	-4064
▁연관된	-4065
▁입증	-4066
▁발명품은	-4067
▁꼽	-4068
▁PC	-4069
▁하다	-4070
▁아이템	-4071
번째	-4072
▁둘러싸	-4073
▁좋습니다	-4074
▁진료	-4075
▁유로	-4076
▁쇼핑	-4077
▁소요	-4078
▁순간	-4079
▁전날	-4080
▁높게	-4081
▁원료	-4082
주에	-4083
범위	-4084
현지시간	-4085
▁그것이	-4086
▁지침	-4087
려는	-4088
터의	-4089
안에	-4090
▁세트	-4091
신호	-4092
항공	-4093
▁넘는	-4094
▁종사	-4095
▁탐색	-4096
▁경험이	-4097
▁입장을	-4098
심을	-4099
틸렌	-4100
▁증가하고	-4101
받고	-4102
▁학부모님	-4103
▁시에	-4104
▁늘어	-4105
▁흡착	-4106
▁하이	-4107
▁연방	-4108
영역	-4109
▁인상	-4110
▁책임을	-4111
데요	-4112
▁지향	-4113
▁객체	-4114
알겠습니다	-4115
(13)	-4116
▁제공하기	-4117
어지는	-4118
▁아파트	-4119
▁조각	-4120
▁목적은	-4121
▁일정한	-4122
▁트레이	-4123
▁무용	-4124
▁커넥	-4125
▁판정을	-4126
▁부가	-4127
▁보이	-4128
▁전용	-4129
클로	-4130
(40)	-4131
▁계획을	-4132
▁성립	-4133
▁드리겠습니다	-4134
▁제어하는	-4135
▁하위	-4136
▁가압	-4137
▁식물	-4138
▁한국에	-4139
▁간에	-4140
▁구속	-4141
량에	-4142
as	-4143
▁규모의	-4144
▁예정입니다	-4145
▁산소	-4146
다만	-4147
커니즘	-4148
▁35	-4149
▁이로	-4150
▁차량의	-4151
▁링크	-4152
▁전방	-4153
문이	-4154
▁점은	-4155
▁이들은	-4156
다음	-4157
▁센싱	-4158
론이	-4159
▁정보의	-4160
▁중이다	-4161
▁가속	-4162
▁설비	-4163
▁별도의	-4164
울러	-4165
탄소	-4166
지기	-4167
▁악화	-4168
레이션	-4169
▁무게	-4170
하므로	-4171
▁비용이	-4172
치의	-4173
17	-4174
▁반응을	-4175
하였습니다	-4176
▁땅	-4177
▁묘	-4178
▁맺	-4179
▁구성될	-4180
▁스프링	-4181
▁어머니	-4182
▁되었습니다	-4183
▁연기	-4184
▁점이다	-4185
요일	-4186
▁감시	-4187
▁페이	-4188
▁구청장은	-4189
움이	-4190
그런	-4191
▁필요로	-4192
▁만성	-4193
세대	-4194
▁트럼프	-4195
▁보정	-4196
▁도매	-4197
▁바람직하다	-4198
그러나	-4199
▁좋아하는	-4200
▁좋다	-4201
▁위험이	-4202
▁타겟	-4203
▁인간의	-4204
국제	-4205
층은	-4206
▁상당한	-4207
▁재배	-4208
기기	-4209
▁밴	-4210
▁KB	-4211
▁사진을	-4212
상품	-4213
▁비롯해	-4214
최근	-4215
▁2013	-4216
교통	-4217
▁2010	-4218
▁대표적인	-4219
교환	-4220
위는	-4221
▁교차	-4222
▁밑	-4223
질의	-4224
▁기준을	-4225
▁90	-4226
▁키워	-4227
▁제정	-4228
▁클라이언	-4229
▁이때	-4230
▁기자	-4231
▁재활	-4232
▁매체	-4233
위로	-4234
▁멋	-4235
권에	-4236
▁들면	-4237
▁단지	-4238
이의	-4239
적으로는	-4240
에게는	-4241
▁남자	-4242
▁연소	-4243
▁도포	-4244
▁덜	-4245
▁플랜	-4246
▁교육과정	-4247
운영	-4248
▁일본의	-4249
▁도면	-4250
▁부하	-4251
▁상하	-4252
외선	-4253
셔야	-4254
▁아이디어	-4255
해를	-4256
▁비상	-4257
▁인수	-4258
▁가게	-4259
▁다운	-4260
▁수신할	-4261
▁연간	-4262
신청	-4263
▁집에	-4264
상에서	-4265
▁메커니즘	-4266
▁롤러	-4267
▁세척	-4268
▁발병	-4269
DA	-4270
▁마찬가지로	-4271
막을	-4272
처를	-4273
함이	-4274
ed	-4275
▁중합체	-4276
▁넓은	-4277
▁알려진	-4278
건강	-4279
코올	-4280
▁탱크	-4281
층이	-4282
▁먹는	-4283
▁필요하다고	-4284
물과	-4285
▁급격	-4286
▁조건을	-4287
▁인터뷰	-4288
같은	-4289
▁수납	-4290
(100	-4291
▁해양	-4292
▁회계	-4293
▁기술이	-4294
▁사용자에게	-4295
▁원래	-4296
▁형성되는	-4297
▁충격	-4298
리브	-4299
▁해소	-4300
▁연구에	-4301
PS	-4302
관계를	-4303
된다고	-4304
▁그들이	-4305
년의	-4306
▁수준을	-4307
이온	-4308
▁쉽지	-4309
정보를	-4310
▁무엇을	-4311
▁약간	-4312
▁버스	-4313
▁비슷한	-4314
▁현재의	-4315
받을	-4316
▁절반	-4317
발성	-4318
▁표면을	-4319
▁융합	-4320
군요	-4321
페인	-4322
노동	-4323
▁실린더	-4324
▁내일	-4325
조직	-4326
▁지속적인	-4327
방을	-4328
미노	-4329
년을	-4330
점의	-4331
is	-4332
▁후속	-4333
특별시	-4334
까지는	-4335
▁유형의	-4336
▁널	-4337
▁계약을	-4338
▁나타나는	-4339
구성	-4340
▁실무	-4341
▁양호	-4342
으므로	-4343
정상	-4344
▁손님	-4345
▁범위를	-4346
▁것이며	-4347
▁드라마	-4348
▁맛있	-4349
▁필요합니다	-4350
지에서	-4351
알킬	-4352
▁의원	-4353
▁외에	-4354
▁방사선	-4355
21	-4356
라이드	-4357
(220)	-4358
까지의	-4359
▁대리	-4360
▁데이터가	-4361
식은	-4362
▁골프	-4363
▁정기	-4364
▁연결되어	-4365
▁의미가	-4366
▁엄청	-4367
발전	-4368
년에는	-4369
▁분석하였다	-4370
▁의혹	-4371
▁살펴보면	-4372
▁물리적	-4373
▁분야에서	-4374
▁근처	-4375
▁남편	-4376
▁표본	-4377
▁박물관	-4378
▁웹사이트	-4379
▁제품입니다	-4380
▁2012	-4381
▁춤	-4382
▁벗어나	-4383
▁환자를	-4384
▁상태에	-4385
어의	-4386
다시	-4387
▁도구	-4388
라면	-4389
▁되었	-4390
▁관절	-4391
산이	-4392
▁성과를	-4393
램프	-4394
▁지방자치	-4395
당한	-4396
▁시스템이	-4397
▁수수	-4398
▁이상을	-4399
▁혈액	-4400
▁외에도	-4401
▁증폭	-4402
▁내용은	-4403
(21)	-4404
프레	-4405
조건	-4406
층에	-4407
▁임시	-4408
년이	-4409
▁하였	-4410
▁이익을	-4411
▁비중이	-4412
▁타고	-4413
▁탑재	-4414
명에	-4415
▁변호	-4416
받는	-4417
음이	-4418
▁신호의	-4419
▁도모	-4420
▁하게	-4421
▁페이스	-4422
방법	-4423
신가요	-4424
▁대향	-4425
▁저장할	-4426
▁선택적으로	-4427
▁한반	-4428
▁잠금	-4429
고는	-4430
▁제일	-4431
▁파괴	-4432
▁수단을	-4433
▁최신	-4434
▁못했다	-4435
▁의해서	-4436
▁시장에	-4437
하려면	-4438
▁제공되는	-4439
▁강원	-4440
▁특징을	-4441
▁없어요	-4442
▁보강	-4443
▁먹고	-4444
▁대해서도	-4445
▁자체가	-4446
실에서	-4447
▁바꾸	-4448
▁위탁	-4449
▁옛	-4450
주로	-4451
화는	-4452
▁부분적으로	-4453
▁여러분	-4454
개가	-4455
▁심사	-4456
▁환경을	-4457
▁고속	-4458
▁현행	-4459
▁폴리에	-4460
▁주거	-4461
으니	-4462
DP	-4463
▁밖에	-4464
▁Y	-4465
▁증상이	-4466
▁곤	-4467
▁좌우	-4468
▁따로	-4469
▁대회	-4470
▁나오는	-4471
▁잉크	-4472
▁간주	-4473
▁패드	-4474
향을	-4475
▁있었습니다	-4476
이로	-4477
▁바뀌	-4478
▁문서	-4479
목을	-4480
▁이슈	-4481
▁용매	-4482
▁새롭게	-4483
▁왼	-4484
하겠다	-4485
▁세탁	-4486
(16)	-4487
▁아니면	-4488
▁다수	-4489
▁축소	-4490
(101)	-4491
▁평화	-4492
▁사용된다	-4493
▁좁	-4494
키는	-4495
협력	-4496
▁등에서	-4497
▁싶어	-4498
겠지만	-4499
▁눈에	-4500
▁대량	-4501
▁차원에서	-4502
▁보기	-4503
▁절차를	-4504
▁기부	-4505
▁찾을	-4506
▁호의	-4507
롯데	-4508
▁응용	-4509
▁리더	-4510
▁맞아	-4511
▁출연	-4512
▁토지	-4513
▁자동으로	-4514
▁메타	-4515
▁피해를	-4516
같이	-4517
겼다	-4518
▁균형	-4519
성장	-4520
레이드	-4521
▁양자	-4522
뮤니	-4523
관에	-4524
판의	-4525
▁교류	-4526
중국	-4527
▁내측	-4528
학과	-4529
▁어려움을	-4530
▁전후	-4531
▁축구	-4532
▁과도	-4533
▁업계	-4534
▁좋을	-4535
져야	-4536
▁가득	-4537
와는	-4538
▁발효	-4539
▁조성물은	-4540
▁적극적인	-4541
es	-4542
▁화소	-4543
▁정규	-4544
▁전망이다	-4545
▁위기	-4546
▁클래	-4547
저는	-4548
▁내놓	-4549
▁제재	-4550
▁앞두고	-4551
▁갖춘	-4552
테이션	-4553
▁권고	-4554
▁판단된다	-4555
▁면적	-4556
▁마련된	-4557
22	-4558
▁컴포	-4559
네이트	-4560
CO	-4561
▁조사를	-4562
▁10%	-4563
▁윈	-4564
주시면	-4565
▁규정을	-4566
레이터	-4567
▁날짜	-4568
80	-4569
▁감염증	-4570
어는	-4571
▁상대로	-4572
▁e	-4573
▁채용	-4574
크릴	-4575
▁그때	-4576
는데요	-4577
된다는	-4578
▁판단할	-4579
▁이야기를	-4580
▁접수	-4581
방에	-4582
▁밥	-4583
▁배치되는	-4584
▁성능을	-4585
▁연결될	-4586
▁하면서	-4587
(400)	-4588
호가	-4589
히는	-4590
▁홍콩	-4591
▁활용한	-4592
▁효과적인	-4593
▁의도	-4594
▁증권	-4595
▁설문	-4596
▁담보	-4597
4,	-4598
▁Z	-4599
느냐	-4600
▁속에	-4601
▁단면	-4602
랐다	-4603
▁깊은	-4604
패시	-4605
렸습니다	-4606
▁하나에	-4607
▁노력을	-4608
▁연극	-4609
▁진공	-4610
▁시장의	-4611
▁2011	-4612
▁그렇지	-4613
지며	-4614
▁신호에	-4615
▁맥락	-4616
관과	-4617
▁유전자	-4618
▁패턴을	-4619
라믹	-4620
▁메시지	-4621
▁그게	-4622
▁정도의	-4623
▁브레이	-4624
▁평행	-4625
▁속도를	-4626
내고	-4627
▁훌	-4628
▁벡터	-4629
▁숫	-4630
▁분자	-4631
▁고객이	-4632
비는	-4633
▁민족	-4634
▁임금	-4635
▁포트	-4636
▁겸	-4637
▁보여주는	-4638
▁상태가	-4639
▁취급	-4640
▁현황	-4641
제도	-4642
▁다르게	-4643
▁뿌	-4644
▁보니	-4645
▁확진자가	-4646
▁대로	-4647
▁감안	-4648
시켰다	-4649
▁토대로	-4650
▁문자	-4651
▁순서	-4652
▁간편	-4653
▁선진	-4654
성으로	-4655
▁결정을	-4656
▁시장에서	-4657
▁이탈리아	-4658
▁광주	-4659
세서	-4660
▁간격	-4661
▁정체	-4662
트리	-4663
▁대사	-4664
였던	-4665
▁2008	-4666
▁있어서의	-4667
▁33	-4668
▁업무를	-4669
권은	-4670
▁발굴	-4671
▁손실	-4672
▁코스	-4673
에만	-4674
▁제조업	-4675
▁규모가	-4676
%)	-4677
▁사법	-4678
▁선언	-4679
에너	-4680
확실	-4681
▁규정에	-4682
▁주장했다	-4683
팀은	-4684
▁표시할	-4685
(102)	-4686
▁지금은	-4687
(19	-4688
리핀	-4689
▁혼자	-4690
▁정확하게	-4691
▁버퍼	-4692
▁딱	-4693
화로	-4694
▁응급	-4695
▁국무	-4696
▁실증	-4697
▁필요할	-4698
민주	-4699
▁나타내고	-4700
▁약물	-4701
을수록	-4702
▁감독이	-4703
▁깊이	-4704
▁목표로	-4705
▁흉	-4706
▁로드	-4707
▁조리	-4708
▁확인해	-4709
▁온실	-4710
▁2009	-4711
IS	-4712
▁둘레	-4713
종을	-4714
▁집합	-4715
▁캐릭	-4716
▁이름을	-4717
▁최소화	-4718
자동	-4719
▁중재	-4720
반기	-4721
▁헬	-4722
사고	-4723
▁측은	-4724
▁가치가	-4725
▁점점	-4726
▁이란	-4727
▁부족한	-4728
▁이것이	-4729
▁괴	-4730
▁피복	-4731
▁경고	-4732
됨에	-4733
▁리스트	-4734
광역	-4735
게임	-4736
▁멤버	-4737
▁자랑	-4738
▁생명	-4739
▁분석한	-4740
어로	-4741
▁섹션	-4742
▁균일	-4743
▁맵	-4744
체육	-4745
▁물건	-4746
▁2020	-4747
▁류	-4748
▁형성한다	-4749
▁소셜	-4750
▁내장	-4751
▁생긴	-4752
소로	-4753
▁상징	-4754
(50)	-4755
▁기회가	-4756
시험	-4757
▁사용하기	-4758
우스	-4759
▁봄	-4760
▁만한	-4761
▁베어링	-4762
▁J	-4763
▁을	-4764
국을	-4765
▁초점을	-4766
▁휠	-4767
설을	-4768
술을	-4769
ent	-4770
▁되도록	-4771
▁전력을	-4772
▁웨이퍼	-4773
▁위험을	-4774
▁네가	-4775
됐다고	-4776
▁컴포넌	-4777
▁상황이다	-4778
▁단계에서	-4779
▁워크	-4780
그리고	-4781
▁프로젝트	-4782
▁커플	-4783
▁고급	-4784
▁받아들	-4785
ab	-4786
금속	-4787
▁관해	-4788
▁판례	-4789
항을	-4790
▁합리	-4791
▁이들이	-4792
ation	-4793
진은	-4794
▁나왔	-4795
▁인기	-4796
▁닫	-4797
▁지원하는	-4798
▁사용하고	-4799
▁가수	-4800
▁원활	-4801
▁등급	-4802
(22	-4803
▁포함되는	-4804
▁때문입니다	-4805
본부	-4806
▁현상	-4807
▁샤프트	-4808
▁짧은	-4809
kg	-4810
약품	-4811
▁높았다	-4812
▁디스크	-4813
▁바디	-4814
▁도면이다	-4815
▁나타났	-4816
중앙	-4817
▁때마다	-4818
(7)	-4819
▁객관	-4820
▁사람을	-4821
CH	-4822
▁부재를	-4823
▁줄어들	-4824
▁대전	-4825
▁일시	-4826
▁디바이스는	-4827
▁단독	-4828
선에	-4829
▁이내에	-4830
▁45	-4831
▁이르	-4832
텔레	-4833
▁돼요	-4834
▁전송할	-4835
분기	-4836
지능	-4837
▁경로를	-4838
▁불러	-4839
▁연마	-4840
분자	-4841
▁표시되는	-4842
▁비밀	-4843
주셔서	-4844
▁소외	-4845
▁강남	-4846
▁근육	-4847
기고	-4848
▁손가락	-4849
▁수치	-4850
▁장식	-4851
▁공급하는	-4852
▁전기적으로	-4853
경이	-4854
▁끝나	-4855
▁대변	-4856
되게	-4857
▁공연을	-4858
▁대조	-4859
미국	-4860
음에도	-4861
인공	-4862
▁수요가	-4863
▁다가	-4864
▁커뮤니	-4865
시킴으로써	-4866
▁끌어	-4867
▁단자	-4868
▁진로	-4869
▁지분	-4870
▁꺼	-4871
굉장	-4872
으로의	-4873
▁혈관	-4874
내용	-4875
▁비교하여	-4876
민의	-4877
▁선별	-4878
▁36	-4879
▁졸업	-4880
▁해상	-4881
▁유명한	-4882
해가	-4883
▁갱	-4884
리트	-4885
▁냄	-4886
▁증가하는	-4887
▁모집	-4888
▁핸드	-4889
▁상업	-4890
▁가르	-4891
면과	-4892
일은	-4893
▁향해	-4894
▁주문을	-4895
▁우울	-4896
기에서	-4897
코로나	-4898
▁축제	-4899
▁부작용	-4900
▁경향이	-4901
▁발표한	-4902
▁성격	-4903
▁폴리머	-4904
발을	-4905
▁논란이	-4906
▁구별	-4907
▁전부	-4908
▁바람직하게는	-4909
즈마	-4910
▁고위	-4911
자들에게	-4912
▁일자리	-4913
▁곳에	-4914
제한	-4915
▁누적	-4916
▁[	-4917
▁사과	-4918
▁체육	-4919
▁꾸준히	-4920
▁점유	-4921
▁입력을	-4922
민이	-4923
▁아름다운	-4924
▁사례가	-4925
▁예시	-4926
소성	-4927
네스코	-4928
이라면	-4929
▁시작했다	-4930
▁양도	-4931
▁LED	-4932
▁추세	-4933
▁도덕	-4934
각형	-4935
에이터	-4936
▁기상	-4937
▁경우도	-4938
▁운영하는	-4939
▁mm	-4940
▁주말	-4941
▁팩	-4942
조제	-4943
▁프로파	-4944
▁활용하여	-4945
▁이루어지고	-4946
▁써	-4947
▁맨	-4948
▁초대	-4949
네시아	-4950
▁체크	-4951
▁놓고	-4952
▁흡입	-4953
▁따뜻	-4954
▁고체	-4955
▁이격	-4956
▁세라믹	-4957
책을	-4958
해지는	-4959
▁건강한	-4960
▁정렬	-4961
▁간접	-4962
▁국회	-4963
▁합금	-4964
▁조기	-4965
학을	-4966
▁처분	-4967
▁현금	-4968
▁관계에	-4969
▁심리	-4970
구나	-4971
▁동료	-4972
▁이식	-4973
전도	-4974
▁납부	-4975
▁행위를	-4976
▁역량	-4977
집니다	-4978
인터	-4979
▁인접한	-4980
자료	-4981
CA	-4982
▁발열	-4983
▁지닌	-4984
▁대역	-4985
▁성분을	-4986
▁청와	-4987
▁무엇보다	-4988
▁심의	-4989
▁캐리어	-4990
주일	-4991
책임	-4992
비아	-4993
▁수를	-4994
▁팽창	-4995
▁편집	-4996
▁클라우드	-4997
▁연장되는	-4998
▁IT	-4999
▁150	-5000
▁굉장	-5001
▁기온	-5002
▁모색	-5003
수소	-5004
일부	-5005
▁회사가	-5006
▁모여	-5007
▁수영	-5008
▁활용할	-5009
PA	-5010
▁안에서	-5011
op	-5012
▁이처럼	-5013
▁형성하고	-5014
▁최초로	-5015
▁측에	-5016
방송	-5017
▁수준이	-5018
▁갔	-5019
▁저희의	-5020
▁향상시킬	-5021
개국	-5022
▁지정된	-5023
ct	-5024
▁가시	-5025
▁뛰어난	-5026
▁배치되어	-5027
미한	-5028
▁생각한다	-5029
▁연결된다	-5030
루션	-5031
▁후반	-5032
▁보이지	-5033
석을	-5034
▁를	-5035
값이	-5036
▁포괄	-5037
▁곳이	-5038
▁쌀	-5039
반응	-5040
▁근접	-5041
▁온도를	-5042
▁흡연	-5043
▁신문	-5044
▁매칭	-5045
▁상위	-5046
들로부터	-5047
리즈	-5048
▁불확실	-5049
▁공부	-5050
▁도서	-5051
▁아세	-5052
▁수신하는	-5053
▁주사	-5054
▁깔	-5055
▁문제로	-5056
500	-5057
▁어제	-5058
▁세그	-5059
▁알게	-5060
스톤	-5061
▁배치된다	-5062
▁제외하고	-5063
▁연결하는	-5064
▁것으로서	-5065
공연	-5066
▁Q	-5067
▁강도	-5068
▁반환	-5069
▁당사의	-5070
▁어드	-5071
▁양극	-5072
나다	-5073
▁부채	-5074
▁목적을	-5075
▁상에서	-5076
▁생각을	-5077
▁안전한	-5078
▁응답하여	-5079
소극	-5080
카드	-5081
▁정보와	-5082
전에서	-5083
▁프로세싱	-5084
지어	-5085
▁않게	-5086
▁뮤	-5087
▁필리핀	-5088
북한	-5089
우리는	-5090
▁g	-5091
졌습니다	-5092
▁클라이언트	-5093
▁생각해	-5094
▁독특	-5095
▁형성되고	-5096
▁소화	-5097
석이	-5098
형태	-5099
▁염증	-5100
OS	-5101
▁상속	-5102
대학교	-5103
▁하더라도	-5104
▁환불	-5105
▁냉장	-5106
▁축적	-5107
▁오목	-5108
▁이달	-5109
▁협조	-5110
▁197	-5111
il	-5112
▁래	-5113
계에	-5114
▁교수는	-5115
산물	-5116
감독	-5117
▁시절	-5118
▁앞에서	-5119
조정	-5120
▁공시	-5121
▁사실이	-5122
모델	-5123
▁자리를	-5124
▁고온	-5125
이라도	-5126
▁인프라	-5127
그렇	-5128
▁영역에서	-5129
▁붕	-5130
▁근본	-5131
명과	-5132
포르	-5133
▁문을	-5134
▁공소	-5135
대에서	-5136
점과	-5137
재인	-5138
▁패킷	-5139
웠다	-5140
▁롯데	-5141
▁소방	-5142
▁엄격	-5143
▁떨어진	-5144
▁운반	-5145
▁교육의	-5146
▁생각이	-5147
▁계층	-5148
▁시작한	-5149
인들의	-5150
(180)	-5151
로우	-5152
▁게시	-5153
이어서	-5154
▁별도로	-5155
▁쟁	-5156
▁계열	-5157
▁깨끗	-5158
가로	-5159
▁종교	-5160
수신	-5161
았던	-5162
▁분야의	-5163
ou	-5164
▁한계가	-5165
군이	-5166
저희	-5167
카르	-5168
치에	-5169
▁대기업	-5170
▁매매	-5171
▁여행을	-5172
▁만들고	-5173
체험	-5174
라이트	-5175
▁번호	-5176
▁사용된	-5177
▁34	-5178
훼손	-5179
▁복원	-5180
▁전공	-5181
▁종이	-5182
심히	-5183
▁CO	-5184
▁가을	-5185
▁외주	-5186
주시기	-5187
▁페이지	-5188
▁높고	-5189
▁아시	-5190
▁없었	-5191
우고	-5192
▁활동에	-5193
▁단순히	-5194
▁옵션	-5195
▁지지하는	-5196
▁사용을	-5197
▁유용한	-5198
▁이상인	-5199
▁그린	-5200
길을	-5201
▁갑자기	-5202
▁오픈	-5203
▁차지하는	-5204
▁배달	-5205
▁저작	-5206
리티	-5207
중한	-5208
▁연주	-5209
▁확인하고	-5210
▁세정	-5211
▁회귀	-5212
▁50%	-5213
▁이산화	-5214
▁박막	-5215
▁입구	-5216
▁호주	-5217
감사	-5218
터는	-5219
▁머물	-5220
▁스캔	-5221
▁발언	-5222
유산	-5223
지사는	-5224
▁국방	-5225
기관의	-5226
▁가변	-5227
▁분사	-5228
▁얇	-5229
▁칠	-5230
▁특정한	-5231
▁낭	-5232
▁카운	-5233
자들을	-5234
▁블록체인	-5235
관에서	-5236
▁협상	-5237
▁발표했다	-5238
▁잊	-5239
▁스위칭	-5240
으로서의	-5241
▁나사	-5242
▁가서	-5243
▁삶을	-5244
범죄	-5245
더라고	-5246
▁상호작용	-5247
테이너	-5248
타민	-5249
▁만들기	-5250
▁독립적으로	-5251
▁제스	-5252
▁일어	-5253
▁훌륭	-5254
▁산정	-5255
)'	-5256
▁단기	-5257
▁방지할	-5258
▁층을	-5259
▁참여하는	-5260
▁얻는	-5261
▁셈	-5262
증권	-5263
▁허가	-5264
▁서비스에	-5265
▁이루어질	-5266
검사	-5267
▁환자에서	-5268
▁많았다	-5269
▁토론	-5270
DM	-5271
▁급증	-5272
▁보일	-5273
▁회피	-5274
도우	-5275
했기	-5276
했으나	-5277
▁유지하는	-5278
스티	-5279
▁분야에	-5280
유를	-5281
▁존재한다	-5282
▁연결되는	-5283
안의	-5284
▁스피커	-5285
▁굉장히	-5286
▁탄화	-5287
ra	-5288
▁쓸	-5289
천만	-5290
▁결합된	-5291
DC	-5292
▁야기	-5293
인으로	-5294
▁추가적인	-5295
행정	-5296
▁요청을	-5297
멘트	-5298
시코	-5299
▁마지막으로	-5300
하에	-5301
개로	-5302
▁크기를	-5303
▁느껴	-5304
▁이것을	-5305
▁알코올	-5306
▁대처	-5307
▁자격	-5308
▁그래픽	-5309
▁대응되는	-5310
id	-5311
▁횟	-5312
▁궤	-5313
▁포인트	-5314
▁블랙	-5315
▁전압을	-5316
▁적용할	-5317
신이	-5318
▁고려할	-5319
▁회사에	-5320
▁특이	-5321
▁공정과	-5322
▁심장	-5323
▁않아요	-5324
전압	-5325
질이	-5326
▁방향의	-5327
▁사회의	-5328
▁계좌	-5329
▁f	-5330
▁개설	-5331
▁에너지를	-5332
▁겹	-5333
▁감축	-5334
▁발휘	-5335
액에	-5336
▁마이	-5337
련의	-5338
▁뛰어	-5339
▁기각	-5340
▁목표를	-5341
사이	-5342
▁(1)	-5343
▁정확히	-5344
▁스트레	-5345
▁구리	-5346
▁개념을	-5347
▁파티	-5348
▁기판의	-5349
▁시퀀	-5350
▁가격을	-5351
해질	-5352
▁고양	-5353
▁슬라이	-5354
▁효율적인	-5355
▁쏟	-5356
내에	-5357
▁저에게	-5358
우선	-5359
대출	-5360
▁밝히	-5361
▁부인	-5362
▁소수	-5363
▁사건을	-5364
▁치료에	-5365
(40	-5366
▁연출	-5367
▁중심의	-5368
가고	-5369
▁120	-5370
▁보유하고	-5371
ch	-5372
▁최소한	-5373
om	-5374
▁주최	-5375
▁수많은	-5376
▁이메일을	-5377
레이트	-5378
▁보인	-5379
▁시계	-5380
▁마음을	-5381
식과	-5382
성분	-5383
재산	-5384
▁아이콘	-5385
대와	-5386
▁탁	-5387
▁행사를	-5388
▁부정적인	-5389
▁끝에	-5390
▁방역	-5391
생을	-5392
▁테러	-5393
▁건가요	-5394
▁전략을	-5395
사실	-5396
▁지문	-5397
구체	-5398
▁주제로	-5399
링크	-5400
▁프리미	-5401
▁진행된	-5402
▁일관	-5403
동의	-5404
▁성인	-5405
▁플라즈마	-5406
통을	-5407
▁직후	-5408
학의	-5409
▁구성을	-5410
식품	-5411
▁철저	-5412
▁음향	-5413
▁여성의	-5414
...	-5415
일본	-5416
▁재료의	-5417
▁별로	-5418
하기를	-5419
▁대한민국	-5420
▁회의를	-5421
스턴	-5422
▁받으	-5423
▁산업의	-5424
▁기술의	-5425
여행	-5426
처분	-5427
겠습니까	-5428
▁받았습니다	-5429
▁담배	-5430
▁다공	-5431
▁제공될	-5432
▁크기가	-5433
RS	-5434
소와	-5435
▁화재	-5436
협의	-5437
▁걷	-5438
▁간단한	-5439
▁이유가	-5440
-3	-5441
▁배치되고	-5442
▁배기	-5443
▁광범위	-5444
▁기초로	-5445
스토랑	-5446
▁아르	-5447
▁신선	-5448
▁미국과	-5449
▁널리	-5450
(15)	-5451
▁시뮬	-5452
협회	-5453
▁형태를	-5454
▁다니	-5455
재판	-5456
질량	-5457
입니까	-5458
▁형상을	-5459
▁KT	-5460
▁수행한다	-5461
군은	-5462
▁가스를	-5463
▁중첩	-5464
▁어울	-5465
▁값이	-5466
▁단축	-5467
등급	-5468
유의	-5469
▁토출	-5470
▁최선을	-5471
▁레스토랑	-5472
▁들고	-5473
아이	-5474
▁부합	-5475
▁체제	-5476
▁쉬운	-5477
▁여부에	-5478
▁리튬	-5479
▁내구	-5480
▁과정에	-5481
▁사항이	-5482
▁실정	-5483
▁시장이	-5484
▁나타난다	-5485
▁대통령의	-5486
아서	-5487
▁내로	-5488
▁성별	-5489
▁공장	-5490
▁좋지	-5491
▁선형	-5492
▁아프리카	-5493
분해	-5494
▁액정	-5495
▁품목	-5496
드컵	-5497
▁우리나라의	-5498
▁프로세스	-5499
▁자세한	-5500
▁형성할	-5501
▁엑	-5502
▁짐	-5503
자원	-5504
▁장치와	-5505
하는지	-5506
▁고객의	-5507
▁발전을	-5508
▁해결하기	-5509
▁그래도	-5510
른다	-5511
▁재난	-5512
▁제공됩니다	-5513
호의	-5514
▁녹색	-5515
▁숙박	-5516
▁모습이	-5517
안은	-5518
▁경과	-5519
▁않기	-5520
MS	-5521
드와	-5522
▁관여	-5523
부로	-5524
▁반려	-5525
었다고	-5526
▁어려워	-5527
▁모두가	-5528
일반	-5529
층과	-5530
전거	-5531
▁말이	-5532
▁물어	-5533
▁3,	-5534
▁중공	-5535
▁매니	-5536
▁유지할	-5537
주고	-5538
▁크로	-5539
▁임신	-5540
감염	-5541
▁친환경	-5542
▁사상	-5543
▁정한	-5544
▁가능할	-5545
▁카테	-5546
▁획득할	-5547
▁번역	-5548
▁저도	-5549
▁상장	-5550
관계가	-5551
전지	-5552
대회	-5553
선거	-5554
▁절감	-5555
▁똑	-5556
평등	-5557
ID	-5558
▁서울특별시	-5559
▁낸	-5560
▁텐	-5561
▁상단	-5562
내가	-5563
▁앞에	-5564
▁공무원	-5565
▁확진자	-5566
▁런	-5567
▁오늘은	-5568
▁피고인	-5569
▁말해	-5570
절차	-5571
멕시코	-5572
▁수의	-5573
▁출입	-5574
았고	-5575
▁플러	-5576
구역	-5577
▁용해	-5578
▁빠져	-5579
▁체중	-5580
▁정도가	-5581
▁복귀	-5582
▁뭔	-5583
▁마치	-5584
망을	-5585
▁특성에	-5586
소비	-5587
당의	-5588
▁순차	-5589
닙니다	-5590
라운	-5591
▁인용	-5592
국민	-5593
진의	-5594
(8)	-5595
▁400	-5596
심의	-5597
화하고	-5598
▁증착	-5599
▁인도네시아	-5600
▁금리	-5601
▁장점이	-5602
▁혜택을	-5603
▁당사는	-5604
▁있기를	-5605
▁정도를	-5606
상황	-5607
증의	-5608
▁식사	-5609
BS	-5610
님이	-5611
등록	-5612
형이	-5613
▁스티	-5614
▁사람들의	-5615
▁전이	-5616
▁오일	-5617
▁높이는	-5618
▁던	-5619
▁쓰레	-5620
▁사료	-5621
▁생성한다	-5622
▁파워	-5623
▁압박	-5624
▁발생한다	-5625
▁머리	-5626
페이지	-5627
가족	-5628
▁본질	-5629
▁현상이	-5630
▁규범	-5631
▁성장을	-5632
▁사례를	-5633
▁가요	-5634
▁교육과	-5635
▁나섰다	-5636
▁제도를	-5637
(310)	-5638
▁현저	-5639
▁구조의	-5640
▁지니	-5641
미디어	-5642
▁도어	-5643
▁유네스코	-5644
▁카페	-5645
하겠다는	-5646
▁재료로	-5647
▁환경에	-5648
▁밀접	-5649
▁는	-5650
각을	-5651
▁공감	-5652
종이	-5653
▁운행	-5654
치게	-5655
▁무효	-5656
▁집에서	-5657
트라	-5658
▁갖추고	-5659
청은	-5660
▁떠나	-5661
▁부분의	-5662
시기	-5663
▁아울러	-5664
▁공사	-5665
▁발포	-5666
▁협약	-5667
▁맞게	-5668
▁초등학교	-5669
▁선고	-5670
▁열교환	-5671
▁했어요	-5672
HO	-5673
▁포기	-5674
▁사이클	-5675
면에서	-5676
▁보유한	-5677
의가	-5678
소에서	-5679
▁관리를	-5680
▁것이고	-5681
▁수준으로	-5682
▁정전	-5683
▁위상	-5684
▁특성이	-5685
▁가야	-5686
100	-5687
▁까	-5688
▁촉구	-5689
▁가격은	-5690
▁뷰	-5691
▁확인하였다	-5692
▁먹어	-5693
▁발생하지	-5694
청구	-5695
▁대북	-5696
▁집계	-5697
▁하나가	-5698
▁일정을	-5699
진흥	-5700
▁손해배	-5701
조가	-5702
▁컨텐츠	-5703
▁소형	-5704
(160)	-5705
전극	-5706
60)	-5707
▁될까요	-5708
아웃	-5709
▁광을	-5710
▁위법	-5711
▁뽑	-5712
▁20%	-5713
▁공항	-5714
▁얻은	-5715
▁사전에	-5716
▁안전하게	-5717
FC	-5718
이후	-5719
면은	-5720
▁살펴본	-5721
리드	-5722
▁투자를	-5723
공동	-5724
▁감사드립니다	-5725
24	-5726
▁법령	-5727
어져	-5728
▁세계적으로	-5729
으로부터의	-5730
▁삭제	-5731
▁간섭	-5732
이기도	-5733
생산	-5734
▁지역을	-5735
▁시점	-5736
90	-5737
재료	-5738
▁맛이	-5739
면서도	-5740
▁산화물	-5741
▁SNS	-5742
▁스트립	-5743
▁도전성	-5744
▁느낄	-5745
보를	-5746
▁호스트	-5747
▁2007	-5748
▁것인지	-5749
(230)	-5750
경영	-5751
도에서	-5752
▁일자	-5753
수한	-5754
▁경북	-5755
▁통로	-5756
동에	-5757
▁잠시	-5758
AS	-5759
상공	-5760
법인	-5761
▁흘러	-5762
▁방향에	-5763
▁열심히	-5764
수단	-5765
▁넣어	-5766
▁이웃	-5767
▁대안	-5768
▁전도성	-5769
▁캐나다	-5770
▁증가할	-5771
결합	-5772
프를	-5773
▁복용	-5774
▁영향이	-5775
▁하드웨어	-5776
대책	-5777
방의	-5778
▁꼬	-5779
▁재활용	-5780
림을	-5781
▁네트워크를	-5782
▁사용이	-5783
사무	-5784
없는	-5785
▁행동을	-5786
팀이	-5787
▁투표	-5788
하면서도	-5789
▁수행될	-5790
▁경찰은	-5791
▁100%	-5792
▁국내외	-5793
환자	-5794
▁보충	-5795
▁창작	-5796
▁자세히	-5797
▁뼈	-5798
▁짓	-5799
▁구현될	-5800
▁용량	-5801
▁출전	-5802
▁연습	-5803
▁정비	-5804
(32)	-5805
▁자유롭게	-5806
▁짜	-5807
▁직장	-5808
▁거리를	-5809
▁크리스	-5810
▁유해	-5811
차례	-5812
▁때에	-5813
필요	-5814
.5%	-5815
▁환자에게	-5816
▁원통	-5817
▁정해진	-5818
▁개편	-5819
▁후의	-5820
공원	-5821
▁성취	-5822
▁브레이크	-5823
방이	-5824
▁쓴	-5825
▁때의	-5826
▁정착	-5827
▁촬상	-5828
▁설치되고	-5829
▁평생	-5830
가소성	-5831
▁42	-5832
▁기어	-5833
유가	-5834
▁인력	-5835
▁포인	-5836
▁말고	-5837
▁내용의	-5838
터가	-5839
▁나올	-5840
▁개막	-5841
▁사용하지	-5842
▁입니다	-5843
▁방해	-5844
실로	-5845
(24)	-5846
▁운영하고	-5847
▁통신을	-5848
▁직접적인	-5849
▁포함된다	-5850
▁편광	-5851
▁전동	-5852
▁플래	-5853
▁인하	-5854
사들이	-5855
▁매트릭	-5856
▁오늘날	-5857
문에	-5858
▁부상	-5859
▁스트레스	-5860
이전	-5861
라운드	-5862
▁비대	-5863
▁0.5	-5864
lo	-5865
문의	-5866
실시	-5867
▁불가피	-5868
▁장애인	-5869
학적으로	-5870
▁미팅	-5871
▁했던	-5872
▁공중합	-5873
▁적용되는	-5874
▁인공지능	-5875
▁올바	-5876
간다	-5877
받아	-5878
▁조달	-5879
기지	-5880
▁선수들이	-5881
▁전염	-5882
이용	-5883
▁멈	-5884
▁위생	-5885
▁제시한	-5886
▁요구하는	-5887
▁미세먼	-5888
었는데	-5889
CS	-5890
▁몇몇	-5891
▁북한이	-5892
▁살고	-5893
AR	-5894
일과	-5895
라며	-5896
▁진정	-5897
▁홀더	-5898
▁풍부한	-5899
선은	-5900
▁손을	-5901
스탄	-5902
▁국민의	-5903
▁각각은	-5904
▁냄새	-5905
법으로	-5906
견을	-5907
▁환원	-5908
▁경우를	-5909
▁그녀의	-5910
▁마주	-5911
▁거래를	-5912
▁갤	-5913
▁보급	-5914
▁탑승	-5915
수준	-5916
시즌	-5917
▁과제	-5918
▁축하	-5919
▁방전	-5920
▁이상으로	-5921
▁배양	-5922
▁북미	-5923
▁로그	-5924
▁받게	-5925
활동을	-5926
인가	-5927
▁지원할	-5928
▁지자	-5929
▁사용하였다	-5930
조는	-5931
▁공모	-5932
▁상상	-5933
▁연합	-5934
▁샌	-5935
임금	-5936
▁맞추	-5937
수도	-5938
▁의결	-5939
카오	-5940
▁부담을	-5941
▁숲	-5942
▁광원	-5943
▁트렌	-5944
▁자신을	-5945
▁비만	-5946
름이	-5947
▁흐름을	-5948
분야	-5949
▁나타나고	-5950
디아	-5951
▁명칭	-5952
▁열어	-5953
▁적용될	-5954
▁유저	-5955
지금	-5956
광역시	-5957
▁소매	-5958
화한	-5959
▁출력할	-5960
미드	-5961
▁끈	-5962
년도	-5963
▁서비스가	-5964
▁높일	-5965
▁설치되어	-5966
▁x	-5967
▁캐비	-5968
▁들어서	-5969
▁수업을	-5970
▁곳곳	-5971
▁유행	-5972
▁입사	-5973
그런데	-5974
▁준다	-5975
▁잡아	-5976
▁0.1	-5977
▁복잡한	-5978
▁커패시	-5979
▁회사에서	-5980
간에	-5981
▁활동이	-5982
법과	-5983
▁측의	-5984
면으로	-5985
▁타이어	-5986
▁스펙	-5987
▁예외	-5988
▁테이프	-5989
▁수송	-5990
▁주체	-5991
▁재개	-5992
▁수분	-5993
▁기술은	-5994
▁단계와	-5995
▁보내주	-5996
가격	-5997
▁준수	-5998
▁길을	-5999
▁못할	-6000
▁현재까지	-6001
리게	-6002
슐린	-6003
▁누가	-6004
테크	-6005
자들	-6006
되었을	-6007
다양	-6008
▁위치에서	-6009
란다	-6010
▁위치하는	-6011
▁점도	-6012
▁근데	-6013
에선	-6014
규칙	-6015
피언	-6016
용으로	-6017
▁구성원	-6018
하되	-6019
▁센서를	-6020
▁가고	-6021
(18)	-6022
▁클럽	-6023
▁소리	-6024
▁만들어진	-6025
▁대단	-6026
▁진행되고	-6027
▁기간이	-6028
▁옮겨	-6029
▁그곳	-6030
모듈	-6031
전략	-6032
▁38	-6033
▁차이는	-6034
▁마찰	-6035
▁권장	-6036
▁온실가스	-6037
▁사업에	-6038
▁비타민	-6039
▁줍니다	-6040
기록	-6041
▁요인으로	-6042
일에는	-6043
▁위에서	-6044
▁띄	-6045
▁당신에게	-6046
▁운동을	-6047
▁주시면	-6048
▁기후변화	-6049
▁범위에서	-6050
▁메이	-6051
동물	-6052
▁제시하였다	-6053
웨이	-6054
▁사항은	-6055
것은	-6056
▁환영	-6057
시다	-6058
▁슬러	-6059
▁콘크	-6060
▁열가소성	-6061
▁ID	-6062
▁가능해	-6063
▁개폐	-6064
▁기지국	-6065
▁표시하는	-6066
▁명령을	-6067
▁이후에	-6068
▁환경에서	-6069
EU	-6070
▁나의	-6071
▁좌표	-6072
▁회담	-6073
▁든	-6074
혈압	-6075
▁참여한	-6076
▁중국이	-6077
로겐	-6078
▁공간이	-6079
▁제공해	-6080
▁대표는	-6081
▁설명하기	-6082
▁통지	-6083
▁시장을	-6084
▁희생	-6085
건의	-6086
▁보편	-6087
▁크고	-6088
▁법정	-6089
12)	-6090
평균	-6091
▁양측	-6092
▁손잡	-6093
▁이루어진다	-6094
▁불리는	-6095
▁1000	-6096
▁물이	-6097
▁이외의	-6098
▁집을	-6099
▁알레	-6100
실의	-6101
▁회원국	-6102
▁치매	-6103
▁나누어	-6104
▁터빈	-6105
▁않는다는	-6106
▁기원	-6107
▁권리를	-6108
▁안정적인	-6109
▁각각에	-6110
▁대략	-6111
▁소멸	-6112
▁사용자에	-6113
23	-6114
재는	-6115
▁신설	-6116
▁AP	-6117
위원회는	-6118
가포르	-6119
▁검출하는	-6120
공무	-6121
▁마련되어	-6122
▁시공	-6123
▁재발	-6124
▁죄송합니다	-6125
▁선물	-6126
▁정상회담	-6127
▁남은	-6128
▁줄일	-6129
하지는	-6130
▁피스톤	-6131
▁초등	-6132
▁맞춤형	-6133
▁필요성이	-6134
▁배당	-6135
▁확신	-6136
▁자발	-6137
만한	-6138
▁진술	-6139
▁캘	-6140
▁무관	-6141
▁아닙니다	-6142
번호	-6143
심이	-6144
전쟁	-6145
▁시나	-6146
▁비례	-6147
냐하면	-6148
BC	-6149
▁일은	-6150
▁것이라	-6151
▁나중에	-6152
▁흔들	-6153
▁건립	-6154
▁점에	-6155
실험	-6156
▁사후	-6157
▁신탁	-6158
PG	-6159
▁기회	-6160
▁생각된다	-6161
▁논리	-6162
▁포함해	-6163
중량	-6164
▁지각	-6165
경화	-6166
조차	-6167
▁올려	-6168
▁신축	-6169
▁비난	-6170
▁냉동	-6171
▁시장은	-6172
▁뚜렷	-6173
▁오르	-6174
▁함으로써	-6175
▁경남	-6176
▁뒤에	-6177
▁크기의	-6178
▁위의	-6179
▁증상	-6180
▁잡고	-6181
▁떨어져	-6182
▁중증	-6183
▁후방	-6184
▁최근에	-6185
관련	-6186
▁정서	-6187
▁인적	-6188
▁장관은	-6189
▁다녀	-6190
▁선택하는	-6191
▁비가	-6192
▁된다는	-6193
프로그램	-6194
▁계절	-6195
화물	-6196
▁분석이	-6197
▁통계적으로	-6198
영업	-6199
▁챙	-6200
오로	-6201
▁난민	-6202
▁멕시코	-6203
iv	-6204
▁힘든	-6205
릅니다	-6206
혈관	-6207
▁온도가	-6208
▁개발한	-6209
▁일부는	-6210
▁급속	-6211
▁것보다	-6212
재로	-6213
▁사이버	-6214
▁예컨대	-6215
▁유일한	-6216
▁절약	-6217
건이	-6218
▁국토	-6219
▁나은	-6220
▁대체로	-6221
▁자아	-6222
▁유래	-6223
건설	-6224
▁그를	-6225
▁대외	-6226
▁신발	-6227
▁말하는	-6228
▁변화는	-6229
▁어려울	-6230
▁프로토	-6231
▁당부	-6232
▁능력이	-6233
▁대만	-6234
▁특징이다	-6235
▁정책의	-6236
하더라도	-6237
▁단계는	-6238
▁적용하여	-6239
끄는	-6240
▁196	-6241
▁지역사회	-6242
▁주지	-6243
▁기반의	-6244
▁민주주의	-6245
▁듣고	-6246
▁이건	-6247
월까지	-6248
공정	-6249
금리	-6250
▁폭발	-6251
▁확률	-6252
계는	-6253
▁끝난	-6254
▁이틀	-6255
▁커넥터	-6256
▁1990	-6257
이버	-6258
▁나오고	-6259
국내	-6260
자본	-6261
▁기저	-6262
▁작품을	-6263
▁논의가	-6264
▁원인이	-6265
수지	-6266
화될	-6267
▁지역은	-6268
산과	-6269
11)	-6270
▁요인이	-6271
▁전화를	-6272
▁급성	-6273
형에	-6274
트와	-6275
▁나도	-6276
▁혈청	-6277
▁비율을	-6278
▁빚	-6279
▁수준에	-6280
▁비율은	-6281
▁확실히	-6282
▁`	-6283
▁일부가	-6284
▁독특한	-6285
▁끼워	-6286
▁얻어진	-6287
▁한국과	-6288
▁발송	-6289
▁훼손	-6290
▁냉매	-6291
▁효능	-6292
씨의	-6293
▁밝힌	-6294
▁IP	-6295
▁학생의	-6296
란드	-6297
▁참여할	-6298
운용	-6299
판에	-6300
▁전반적인	-6301
▁현장에서	-6302
이날	-6303
▁유지하고	-6304
▁연동	-6305
▁채널을	-6306
생물	-6307
▁꽤	-6308
▁상응	-6309
▁가능하며	-6310
류에	-6311
▁자전거	-6312
▁문화를	-6313
바로	-6314
▁Si	-6315
CE	-6316
▁의무를	-6317
▁증진	-6318
▁성향	-6319
▁컨테이너	-6320
▁처리하는	-6321
단과	-6322
산은	-6323
링을	-6324
▁고려해	-6325
▁속도가	-6326
▁비핵	-6327
▁하셨	-6328
(23	-6329
▁농촌	-6330
력으로	-6331
▁리그	-6332
▁쏟아	-6333
물론	-6334
▁발급	-6335
▁피해가	-6336
▁반송	-6337
▁증대	-6338
▁있거나	-6339
▁다리	-6340
(31)	-6341
▁이유를	-6342
구와	-6343
▁선임	-6344
▁벌어	-6345
▁패키지	-6346
▁인슐린	-6347
▁측정하는	-6348
▁안타	-6349
▁시간은	-6350
▁최적의	-6351
▁매각	-6352
▁일체	-6353
▁곱	-6354
▁그렇다면	-6355
▁사람들에게	-6356
지자	-6357
▁마음에	-6358
▁위로	-6359
▁기본적으로	-6360
▁선택되는	-6361
▁굽	-6362
하겠다고	-6363
▁여과	-6364
▁개선된	-6365
▁기간을	-6366
▁이어질	-6367
공사	-6368
▁세로	-6369
▁것이었다	-6370
오니	-6371
▁혼란	-6372
od	-6373
▁수리	-6374
▁민법	-6375
▁육성	-6376
▁확립	-6377
더라고요	-6378
▁인기를	-6379
▁디바이스의	-6380
피스	-6381
▁않지만	-6382
▁폐렴	-6383
▁파견	-6384
▁참석한	-6385
▁셈이다	-6386
▁득	-6387
▁다양하게	-6388
반면	-6389
▁여겨	-6390
▁타이밍	-6391
▁종목	-6392
로이드	-6393
▁단순한	-6394
▁설명한다	-6395
생의	-6396
시키지	-6397
고기	-6398
▁닭	-6399
▁콩	-6400
▁65	-6401
▁분양	-6402
▁금액	-6403
▁노력이	-6404
하십시오	-6405
▁림	-6406
▁기체	-6407
경기도	-6408
▁위치하고	-6409
▁고등학교	-6410
열을	-6411
▁진행할	-6412
▁노트	-6413
드리고	-6414
▁유압	-6415
▁이해할	-6416
▁지수	-6417
▁방법과	-6418
▁문헌	-6419
▁인기가	-6420
유럽	-6421
비의	-6422
호텔	-6423
▁없기	-6424
▁결의	-6425
▁효과는	-6426
하우	-6427
▁변조	-6428
▁주제	-6429
▁지점	-6430
▁기판을	-6431
▁37	-6432
수익	-6433
스러	-6434
▁주어진	-6435
▁탓	-6436
▁지방세	-6437
▁조항	-6438
심으로	-6439
코더	-6440
▁기대된다	-6441
ii	-6442
▁출판	-6443
▁측벽	-6444
▁한국은	-6445
▁그려	-6446
▁회신	-6447
랫동안	-6448
▁펄스	-6449
▁슈퍼	-6450
▁알려주	-6451
▁커지고	-6452
▁과정이	-6453
▁갱신	-6454
▁프로그램이	-6455
▁결론	-6456
크로	-6457
▁41	-6458
고의	-6459
▁랜	-6460
▁수동	-6461
▁여성이	-6462
▁보였	-6463
▁종종	-6464
▁단열	-6465
▁배상	-6466
▁리소	-6467
▁저렴한	-6468
▁관할	-6469
▁별지	-6470
▁부재의	-6471
▁일찍	-6472
▁맞물	-6473
▁고대	-6474
▁오버	-6475
▁경상	-6476
▁서울시	-6477
▁둘러싼	-6478
▁유니	-6479
▁초청	-6480
▁보여주고	-6481
십니까	-6482
▁보았다	-6483
▁내부의	-6484
▁수령	-6485
▁곳이다	-6486
었지만	-6487
보기	-6488
▁RF	-6489
▁작가	-6490
▁아미노	-6491
▁기준에	-6492
▁혐의로	-6493
받침	-6494
▁통보	-6495
장에게	-6496
어에	-6497
시대	-6498
▁누구나	-6499
위치	-6500
▁절제	-6501
▁인식을	-6502
▁포함될	-6503
▁당국은	-6504
광을	-6505
▁경기를	-6506
▁지키	-6507
적극	-6508
▁물건을	-6509
▁양호한	-6510
▁췌	-6511
이므로	-6512
▁연락을	-6513
▁흐르는	-6514
▁경매	-6515
▁주십시오	-6516
▁언제든지	-6517
▁개인정보	-6518
료가	-6519
공급	-6520
▁대폭	-6521
▁곳에서	-6522
포를	-6523
▁정수	-6524
셔도	-6525
이런	-6526
▁동남	-6527
▁기다리	-6528
6,	-6529
▁수원	-6530
▁물질의	-6531
권과	-6532
업이	-6533
▁시의	-6534
군에	-6535
▁의뢰	-6536
에너지	-6537
TE	-6538
▁병변	-6539
그럼	-6540
▁윈도우	-6541
▁블루	-6542
▁바람직한	-6543
▁도쿄	-6544
▁토양	-6545
▁스페인	-6546
▁납세	-6547
▁트랙	-6548
▁직경	-6549
▁올림픽	-6550
자동차	-6551
무역	-6552
▁특별히	-6553
▁부근	-6554
위원회의	-6555
▁부담이	-6556
▁기다려	-6557
▁호소	-6558
▁부서	-6559
▁기간에	-6560
순환	-6561
▁결정한다	-6562
▁전형	-6563
▁하여금	-6564
▁다행	-6565
▁감염병	-6566
화되고	-6567
▁스케줄	-6568
▁용도에	-6569
TV	-6570
▁얻어	-6571
2-	-6572
▁30%	-6573
▁시작된	-6574
▁전통적인	-6575
IP	-6576
었어	-6577
▁카르	-6578
▁자살	-6579
선과	-6580
▁게임을	-6581
▁영역은	-6582
겠네요	-6583
▁비용은	-6584
▁담긴	-6585
▁제조된	-6586
선수	-6587
▁겪고	-6588
▁이차	-6589
▁정하는	-6590
▁미국이	-6591
▁사용한다	-6592
45	-6593
▁연통	-6594
▁기계적	-6595
▁일련의	-6596
AM	-6597
▁이른바	-6598
▁했지만	-6599
▁실적	-6600
▁개구부	-6601
▁않으	-6602
▁부드럽	-6603
▁원고의	-6604
▁갖게	-6605
▁동영상	-6606
▁상고	-6607
▁미치지	-6608
▁셔	-6609
▁오랫동안	-6610
IA	-6611
▁다문화	-6612
▁공기를	-6613
(500)	-6614
▁인터페이스를	-6615
▁입국	-6616
▁묶	-6617
70)	-6618
▁도시한	-6619
▁요소가	-6620
▁맞이	-6621
▁아니고	-6622
▁전해졌다	-6623
시경	-6624
▁수급	-6625
▁코딩	-6626
▁긍정적	-6627
▁저희에게	-6628
▁물류	-6629
▁수반	-6630
)"	-6631
▁싫	-6632
먼저	-6633
▁하단	-6634
▁수행하기	-6635
▁싱가포르	-6636
감과	-6637
▁요인을	-6638
▁곳으로	-6639
▁슬롯	-6640
(112)	-6641
▁교정	-6642
▁존중	-6643
▁분명히	-6644
▁협력을	-6645
▁극대	-6646
시키도록	-6647
▁마음이	-6648
▁학생들은	-6649
장관	-6650
▁플러그	-6651
오프	-6652
▁화상을	-6653
▁관계없이	-6654
▁된다고	-6655
▁저장부	-6656
수수	-6657
▁직면	-6658
▁"‘	-6659
주파	-6660
▁스타트	-6661
▁시기에	-6662
칼리	-6663
▁선수가	-6664
▁한반도	-6665
연금	-6666
▁향상을	-6667
▁메일	-6668
▁제고	-6669
▁증발	-6670
▁걸어	-6671
▁시범	-6672
▁사용해	-6673
▁루프	-6674
▁아래와	-6675
▁한계를	-6676
▁봉사	-6677
▁칸	-6678
동이	-6679
▁52	-6680
▁팀이	-6681
▁수신하고	-6682
졌고	-6683
▁가까이	-6684
로가	-6685
▁2005	-6686
▁진행하고	-6687
▁제스처	-6688
▁음극	-6689
▁사람들을	-6690
▁형식	-6691
박물관	-6692
▁띠	-6693
▁골절	-6694
▁방법의	-6695
▁티켓	-6696
▁결과로	-6697
었을	-6698
▁받아야	-6699
(50	-6700
▁매수	-6701
▁공간에	-6702
▁언급한	-6703
▁않았습니다	-6704
▁부적	-6705
세로	-6706
am	-6707
▁고리	-6708
▁설정할	-6709
▁마감	-6710
(170)	-6711
▁전체의	-6712
ET	-6713
▁당신을	-6714
▁한국인	-6715
▁보고서	-6716
청이	-6717
▁실시하였다	-6718
▁상환	-6719
▁방지하기	-6720
▁색상	-6721
트럼	-6722
▁포토	-6723
▁튀	-6724
▁조성물의	-6725
▁구조가	-6726
▁실정이다	-6727
오염	-6728
▁상용	-6729
▁작년	-6730
여명이	-6731
▁문재인	-6732
▁증상을	-6733
수성	-6734
▁이래	-6735
▁고객에게	-6736
▁베이징	-6737
기반	-6738
▁릴	-6739
보증	-6740
기업의	-6741
▁고분자	-6742
▁조언	-6743
▁휴대용	-6744
▁슬라이드	-6745
참여	-6746
▁그래프	-6747
▁규정이	-6748
▁이어지는	-6749
명령	-6750
관절	-6751
▁혼합물을	-6752
▁존재하지	-6753
시로	-6754
▁급여	-6755
▁했는데	-6756
▁우리에게	-6757
▁비정	-6758
▁제거하는	-6759
▁긴장	-6760
▁중복	-6761
▁도메	-6762
▁분위기	-6763
▁도내	-6764
▁영구	-6765
▁분기	-6766
▁기업은	-6767
▁의견이	-6768
폭력	-6769
▁않아도	-6770
실은	-6771
▁세무	-6772
▁수십	-6773
당은	-6774
▁낮추	-6775
▁막기	-6776
▁세워	-6777
▁덕분에	-6778
▁표면의	-6779
▁지휘	-6780
▁속성	-6781
▁작업이	-6782
리에서	-6783
▁직원이	-6784
▁사업의	-6785
스팅	-6786
▁폼	-6787
▁효율을	-6788
겠어	-6789
▁아는	-6790
▁램프	-6791
▁낳	-6792
보드	-6793
축구	-6794
하였을	-6795
▁톱	-6796
▁출구	-6797
▁인코딩	-6798
드려	-6799
▁기름	-6800
▁사이트	-6801
▁기둥	-6802
남도	-6803
▁되기	-6804
베이	-6805
설정	-6806
▁기인	-6807
▁활용해	-6808
됨으로써	-6809
▁43	-6810
▁유적	-6811
▁굳	-6812
판이	-6813
▁더해	-6814
▁통증	-6815
▁생각하는	-6816
▁전문가들은	-6817
▁회사를	-6818
▁분석했다	-6819
▁기준이	-6820
▁마스터	-6821
▁분석에	-6822
▁회로를	-6823
▁2006	-6824
em	-6825
▁클러스	-6826
▁낼	-6827
평양	-6828
판매	-6829
▁책을	-6830
▁중국은	-6831
▁구조는	-6832
▁남한	-6833
되기도	-6834
▁하천	-6835
▁미국에서	-6836
지인	-6837
▁달려	-6838
▁증여	-6839
연맹	-6840
▁폐지	-6841
청소	-6842
▁실질적인	-6843
축을	-6844
▁스파	-6845
▁공익	-6846
▁거듭	-6847
▁개발을	-6848
▁도와드릴	-6849
연을	-6850
▁입주	-6851
▁강의	-6852
▁주된	-6853
버터	-6854
▁파장	-6855
▁"200	-6856
이상	-6857
▁보낸	-6858
▁신호가	-6859
▁선단	-6860
▁CP	-6861
im	-6862
▁것일	-6863
▁압력을	-6864
▁근거하여	-6865
▁발생했다	-6866
▁앨	-6867
▁약제	-6868
▁모형을	-6869
▁캔	-6870
▁방침이다	-6871
▁서명	-6872
▁위촉	-6873
▁국가가	-6874
리며	-6875
▁무료로	-6876
▁않으며	-6877
▁서비스의	-6878
사인	-6879
▁챔피언	-6880
조사를	-6881
생이	-6882
▁리드	-6883
▁프로토콜	-6884
▁반발	-6885
▁입자를	-6886
▁프로그램의	-6887
▁동일하게	-6888
원한	-6889
▁거기	-6890
▁기업에	-6891
▁실시한	-6892
▁셋	-6893
▁세계에서	-6894
▁각도	-6895
▁함수	-6896
(9)	-6897
아의	-6898
▁방법으로서	-6899
▁신속하게	-6900
▁110	-6901
▁강하게	-6902
▁필요하다는	-6903
전기	-6904
▁열고	-6905
▁파기	-6906
만에	-6907
전은	-6908
▁생겨	-6909
▁아내	-6910
▁문화적	-6911
▁결과와	-6912
▁최근에는	-6913
오드	-6914
▁드라이버	-6915
임이	-6916
▁입고	-6917
품이	-6918
회사의	-6919
▁기술적	-6920
▁살펴보고	-6921
▁주어	-6922
▁발생을	-6923
▁몽	-6924
당을	-6925
▁대법원	-6926
▁방식의	-6927
프로세서	-6928
▁저감	-6929
해지고	-6930
▁모듈을	-6931
▁어려움이	-6932
았어요	-6933
▁해주	-6934
▁날씨	-6935
▁스타일	-6936
▁수면	-6937
▁제공된	-6938
▁어플리케이션	-6939
▁문제의	-6940
▁접착제	-6941
레핀	-6942
▁상태의	-6943
▁억제할	-6944
▁함유하고	-6945
▁도금	-6946
▁그룹의	-6947
▁이르는	-6948
호에	-6949
▁매입	-6950
▁프라이	-6951
▁성적	-6952
▁고정된	-6953
▁형광	-6954
▁참여를	-6955
▁가능하도록	-6956
▁현상을	-6957
▁국회의	-6958
레탄	-6959
▁멀리	-6960
▁왼쪽	-6961
▁단위로	-6962
▁바란다	-6963
▁완벽한	-6964
▁조성물에	-6965
▁멸	-6966
▁태그	-6967
으로도	-6968
▁있었고	-6969
▁가슴	-6970
▁적정	-6971
▁주인공	-6972
▁관리하는	-6973
▁메르	-6974
▁구강	-6975
국에서	-6976
▁사업이	-6977
▁흰	-6978
▁강도를	-6979
됐고	-6980
.0%	-6981
▁48	-6982
▁받아들이	-6983
미나	-6984
▁커플링	-6985
▁제시하고	-6986
▁부당	-6987
▁차를	-6988
▁휴대폰	-6989
미를	-6990
ECD	-6991
음악	-6992
MP	-6993
▁부피	-6994
▁평소	-6995
able	-6996
▁빵	-6997
▁철도	-6998
▁이루어져	-6999
▁왔습니다	-7000
▁컵	-7001
▁리스크	-7002
▁최초의	-7003
종합	-7004
▁저장하는	-7005
▁미만의	-7006
▁인물	-7007
▁장치로	-7008
▁가교	-7009
교육을	-7010
▁확인하기	-7011
▁종속	-7012
▁시설을	-7013
위험	-7014
▁출범	-7015
▁집적	-7016
▁해결할	-7017
▁거죠	-7018
편의	-7019
▁단어	-7020
▁힌	-7021
▁저해	-7022
▁출산	-7023
▁Al	-7024
▁있으니	-7025
▁섞	-7026
이때	-7027
▁근대	-7028
▁일주일	-7029
▁참조하면	-7030
FA	-7031
스에서	-7032
센서	-7033
▁가벼	-7034
▁계면	-7035
▁과도한	-7036
▁역량을	-7037
▁남녀	-7038
▁전사	-7039
▁사용하면	-7040
이게	-7041
▁씨가	-7042
▁초반	-7043
되었던	-7044
▁방문해	-7045
▁소식을	-7046
▁불순	-7047
▁세트를	-7048
다양한	-7049
▁알려주세요	-7050
▁암호	-7051
후군	-7052
▁화합물의	-7053
▁이하인	-7054
▁기업들이	-7055
▁개발에	-7056
▁화면을	-7057
▁쥐	-7058
신의	-7059
▁모델은	-7060
▁보호를	-7061
▁감독은	-7062
▁검출된	-7063
국과	-7064
량과	-7065
▁나눠	-7066
▁신호는	-7067
▁스펙트럼	-7068
오늘	-7069
출력	-7070
▁"2	-7071
▁파일을	-7072
▁우주	-7073
▁기본적인	-7074
▁모노	-7075
감은	-7076
▁도시된	-7077
▁심지어	-7078
그림	-7079
▁수신한	-7080
▁창조	-7081
메틸	-7082
체계	-7083
▁승객	-7084
▁어디서	-7085
시티	-7086
▁계수	-7087
자금	-7088
소한	-7089
폴리	-7090
▁방식은	-7091
▁확인하는	-7092
분간	-7093
▁다를	-7094
▁맛을	-7095
율의	-7096
▁그건	-7097
▁샘플을	-7098
▁방법이다	-7099
▁고품	-7100
▁굴절	-7101
▁템	-7102
▁원천	-7103
▁질의	-7104
us	-7105
번에	-7106
▁소규모	-7107
료는	-7108
▁플로	-7109
▁근거로	-7110
▁수술을	-7111
▁차원의	-7112
▁빅데이터	-7113
봉사	-7114
▁하늘	-7115
▁없지만	-7116
▁악성	-7117
▁내용에	-7118
였습니다	-7119
AN	-7120
▁점착	-7121
▁가설	-7122
▁유무	-7123
▁이끌어	-7124
(320)	-7125
들이다	-7126
▁불필요	-7127
▁정의된	-7128
페라	-7129
고자	-7130
▁제안을	-7131
지도록	-7132
▁운영에	-7133
ul	-7134
▁제어를	-7135
▁무대	-7136
▁태양광	-7137
▁나를	-7138
▁이자	-7139
▁장난	-7140
▁과정은	-7141
르크	-7142
▁사무총	-7143
▁오른쪽	-7144
▁컸	-7145
리한	-7146
▁가해	-7147
▁시간과	-7148
▁포도	-7149
ST	-7150
▁의식	-7151
보세요	-7152
▁테마	-7153
▁홈페이지	-7154
▁이루는	-7155
▁증가한	-7156
적이며	-7157
▁담은	-7158
▁쓰는	-7159
▁해안	-7160
론의	-7161
▁적지	-7162
▁사용되고	-7163
▁사고가	-7164
▁라벨	-7165
▁소개하려고	-7166
▁기대하고	-7167
ut	-7168
▁요금	-7169
▁산업혁	-7170
▁컴포넌트	-7171
▁있으시면	-7172
▁논의를	-7173
하이	-7174
▁치열	-7175
▁받는다	-7176
▁움직임을	-7177
▁왜곡	-7178
▁절삭	-7179
▁조직의	-7180
추에이터	-7181
▁디바이스에	-7182
▁구조로	-7183
▁글을	-7184
▁주소	-7185
▁며	-7186
▁원형	-7187
▁무시	-7188
▁결정될	-7189
▁다음에	-7190
▁소개해	-7191
▁주에	-7192
그래서	-7193
▁유닛을	-7194
▁다이어	-7195
▁PD	-7196
▁훌륭한	-7197
▁구성되며	-7198
▁염색	-7199
료의	-7200
여서	-7201
▁처리부	-7202
▁행위가	-7203
▁안정적으로	-7204
▁박스	-7205
▁55	-7206
▁하는지	-7207
▁보여주었다	-7208
▁경기도가	-7209
▁들었습니다	-7210
쁩니다	-7211
▁CT	-7212
▁시스템에서	-7213
▁장비를	-7214
▁요소는	-7215
▁되게	-7216
▁야외	-7217
▁와서	-7218
▁드라이브	-7219
▁수성	-7220
▁슬라이딩	-7221
▁영역이	-7222
▁장관	-7223
▁프로그램은	-7224
방지	-7225
▁부위	-7226
▁산림	-7227
▁처리할	-7228
▁돌려	-7229
▁고려한	-7230
▁메일을	-7231
▁공적	-7232
▁패션	-7233
▁5%	-7234
un	-7235
▁마세요	-7236
레오	-7237
▁모아	-7238
▁성격을	-7239
▁손해배상	-7240
▁힘이	-7241
▁세금	-7242
▁문제점을	-7243
▁거리가	-7244
▁시나리오	-7245
▁요약	-7246
▁때도	-7247
▁금액을	-7248
▁부가가	-7249
▁부정적	-7250
▁있음	-7251
▁전역	-7252
▁자금을	-7253
▁말할	-7254
업무	-7255
자유	-7256
▁전자기	-7257
▁막을	-7258
▁장벽	-7259
▁주변에	-7260
▁증강	-7261
▁포착	-7262
▁보세요	-7263
▁매력	-7264
▁전년	-7265
▁부드러운	-7266
시부터	-7267
▁그리스	-7268
▁하겠다	-7269
▁속도로	-7270
재생	-7271
▁측정된	-7272
태를	-7273
▁아쉬	-7274
밀한	-7275
은행이	-7276
▁국내에서	-7277
▁입력된	-7278
▁콘서	-7279
▁(2)	-7280
4-	-7281
▁에지	-7282
▁하시	-7283
(23)	-7284
▁확인됐다	-7285
뱅크	-7286
▁성공적으로	-7287
▁제도의	-7288
▁뒷받침	-7289
1~	-7290
EC	-7291
스포	-7292
▁결정하기	-7293
▁누군	-7294
▁요구되는	-7295
ot	-7296
▁계측	-7297
▁디코딩	-7298
RI	-7299
동작	-7300
▁가면	-7301
▁정책이	-7302
▁가능성도	-7303
기존	-7304
(104)	-7305
▁프리미엄	-7306
▁높이고	-7307
▁하도록	-7308
품의	-7309
▁이메일	-7310
▁아무런	-7311
▁차가	-7312
PC	-7313
▁좋아요	-7314
▁형성하기	-7315
▁채워	-7316
록시	-7317
목적	-7318
▁상품의	-7319
▁나타날	-7320
▁듀	-7321
▁불균	-7322
▁적용하는	-7323
▁같은데	-7324
국인	-7325
▁재현	-7326
▁캐릭터	-7327
▁평가했다	-7328
▁직접적으로	-7329
▁생산하는	-7330
▁싶다	-7331
▁남쪽	-7332
현실	-7333
▁지상	-7334
▁k	-7335
▁의료기관	-7336
▁항체	-7337
▁형상의	-7338
봐야	-7339
▁저지	-7340
▁지원이	-7341
▁않는다고	-7342
미술	-7343
올해	-7344
▁명예	-7345
▁수강	-7346
▁개선을	-7347
▁아래에	-7348
리스트	-7349
▁질문에	-7350
▁독자	-7351
▁허브	-7352
▁가격에	-7353
▁시리즈	-7354
오스	-7355
▁화물	-7356
▁해수	-7357
하기는	-7358
▁nm	-7359
▁상향	-7360
▁나이	-7361
▁반경	-7362
▁출력하는	-7363
▁병원에	-7364
▁프로그램에	-7365
▁동시	-7366
▁선택한	-7367
PD	-7368
▁보낼	-7369
▁진행된다	-7370
▁지식을	-7371
▁아웃	-7372
▁전제	-7373
원들이	-7374
▁걸릴	-7375
▁파손	-7376
▁w	-7377
▁석유	-7378
▁이득	-7379
▁입력에	-7380
▁품질을	-7381
▁말씀해	-7382
▁CS	-7383
▁진행되는	-7384
▁활성화를	-7385
▁견해	-7386
▁아닐	-7387
▁방식에	-7388
▁나갈	-7389
▁역사적	-7390
▁일제	-7391
▁첨단	-7392
듭니다	-7393
산에	-7394
▁불량	-7395
▁패스	-7396
소통	-7397
증은	-7398
지구	-7399
플라	-7400
▁마그	-7401
만약	-7402
시와	-7403
▁단단	-7404
이거나	-7405
▁시뮬레이션	-7406
테르	-7407
▁이끄는	-7408
시행	-7409
▁쾌	-7410
▁선사	-7411
▁올바른	-7412
▁준비가	-7413
▁그걸	-7414
막이	-7415
세는	-7416
▁알림	-7417
▁보행	-7418
▁경제의	-7419
▁이들을	-7420
패널	-7421
▁우측	-7422
▁입체	-7423
▁송수신	-7424
TS	-7425
▁정책에	-7426
▁아이들이	-7427
▁관심과	-7428
▁그중	-7429
▁무릎	-7430
▁잘못된	-7431
차는	-7432
지사	-7433
▁광역	-7434
▁후원	-7435
▁자연스럽게	-7436
▁합류	-7437
▁수지를	-7438
▁당연히	-7439
치로	-7440
▁유의하게	-7441
▁슬리브	-7442
▁게다가	-7443
▁지적이	-7444
▁지하철	-7445
▁주신	-7446
▁채취	-7447
▁나에게	-7448
▁않다는	-7449
▁알칼리	-7450
▁뜻을	-7451
교사	-7452
▁반대로	-7453
▁실시간으로	-7454
에서만	-7455
▁회장	-7456
ad	-7457
▁라이브	-7458
햅틱	-7459
▁미끄	-7460
▁방문한	-7461
5,	-7462
능력	-7463
재정	-7464
▁경기가	-7465
마크	-7466
▁평가하는	-7467
')	-7468
▁귀사	-7469
▁경기에서	-7470
▁다음으로	-7471
▁하이드	-7472
▁마스크를	-7473
▁어깨	-7474
방법을	-7475
▁윤활	-7476
레이시아	-7477
▁낚	-7478
▁에폭	-7479
▁되나요	-7480
▁1,000	-7481
기판	-7482
모든	-7483
▁묵	-7484
▁나타낼	-7485
볼라	-7486
피고	-7487
▁수축	-7488
▁감각	-7489
▁늘어난	-7490
▁멜	-7491
▁FTA	-7492
▁회장이	-7493
▁발생하고	-7494
∼3	-7495
일간	-7496
(32	-7497
▁홈페이	-7498
버스	-7499
▁하여야	-7500
(410)	-7501
고객	-7502
▁통신부	-7503
사람	-7504
▁즐거	-7505
▁결정에	-7506
▁커뮤니티	-7507
나가	-7508
협약	-7509
▁모듈은	-7510
니어	-7511
리면	-7512
▁이전의	-7513
▁칭	-7514
▁반응이	-7515
▁속하는	-7516
TO	-7517
▁단량	-7518
억원을	-7519
▁계기로	-7520
▁시행령	-7521
▁액추에이터	-7522
양을	-7523
▁질소	-7524
▁사실은	-7525
허가	-7526
▁달하는	-7527
▁서비스는	-7528
▁몰입	-7529
▁명세	-7530
▁마련한	-7531
▁하중	-7532
티드	-7533
▁대장	-7534
▁안심	-7535
▁심리적	-7536
▁이루고	-7537
▁양쪽	-7538
되었다고	-7539
▁전신	-7540
ag	-7541
▁ICT	-7542
당국은	-7543
▁거리에	-7544
파크	-7545
목이	-7546
▁대립	-7547
▁"1	-7548
▁플루	-7549
▁생기	-7550
▁행렬	-7551
▁학생이	-7552
▁생성하기	-7553
아니요	-7554
▁빗	-7555
ter	-7556
▁텔레	-7557
▁높이기	-7558
▁인과	-7559
▁44	-7560
▁많고	-7561
▁목재	-7562
양의	-7563
▁기쁩니다	-7564
▁차지하고	-7565
▁퇴직	-7566
▁결함	-7567
▁정부와	-7568
업에	-7569
치와	-7570
▁시내	-7571
▁털	-7572
▁의사를	-7573
▁압출	-7574
▁콘크리트	-7575
▁가계	-7576
▁농도	-7577
▁건강에	-7578
▁권한을	-7579
▁공진	-7580
▁세계적인	-7581
▁고객을	-7582
(111)	-7583
으니까	-7584
▁한류	-7585
조선	-7586
▁기자회	-7587
담당	-7588
▁뚜껑	-7589
▁만난	-7590
▁회로는	-7591
▁붕괴	-7592
▁추후	-7593
▁고혈압	-7594
보가	-7595
▁μ	-7596
▁공동체	-7597
실과	-7598
주행	-7599
.3%	-7600
여야	-7601
▁분석하여	-7602
▁설치하고	-7603
▁그거	-7604
▁높아지고	-7605
▁재고	-7606
▁구조체	-7607
▁병원에서	-7608
▁방식이	-7609
▁요청에	-7610
▁카카오	-7611
▁높을수록	-7612
▁애플리케이션을	-7613
▁없게	-7614
▁했다고	-7615
▁수백	-7616
▁모델의	-7617
위기	-7618
랭크	-7619
▁있어서는	-7620
형성	-7621
▁기대한다	-7622
▁독점	-7623
▁익숙	-7624
(26)	-7625
▁유럽연합	-7626
▁용액	-7627
화하여	-7628
▁합리적인	-7629
▁씨는	-7630
▁기다리고	-7631
▁이메일로	-7632
▁4,	-7633
▁로터	-7634
▁에러	-7635
▁취임	-7636
▁탄력	-7637
▁우한	-7638
▁주위	-7639
위원회가	-7640
▁인덱	-7641
)’	-7642
▁비중을	-7643
▁쇠	-7644
유로	-7645
▁피크	-7646
▁경향을	-7647
▁병렬	-7648
▁처방	-7649
▁찾기	-7650
▁진단을	-7651
출을	-7652
했어	-7653
▁시그	-7654
▁제어한다	-7655
표시	-7656
.2%	-7657
▁세대	-7658
▁입은	-7659
▁가능하고	-7660
▁양을	-7661
▁위와	-7662
▁사람에게	-7663
MI	-7664
▁배수	-7665
▁인장	-7666
▁풀이	-7667
ur	-7668
▁앓	-7669
▁관세	-7670
▁활용하는	-7671
▁본격적으로	-7672
장에서는	-7673
▁필요성을	-7674
▁사건이	-7675
▁중요성을	-7676
AC	-7677
▁표시된	-7678
▁밴드	-7679
▁방향족	-7680
▁소상공	-7681
▁로컬	-7682
군과	-7683
▁드리고	-7684
▁쪽으로	-7685
▁비닐	-7686
▁변경할	-7687
미가	-7688
▁고찰	-7689
▁기관의	-7690
▁범위에	-7691
▁확인된	-7692
▁진행하는	-7693
▁당초	-7694
▁치아	-7695
▁수도권	-7696
▁조건에	-7697
▁일환	-7698
▁측면에	-7699
모를	-7700
승을	-7701
▁설명이다	-7702
▁여기에서	-7703
ce	-7704
스카	-7705
이었던	-7706
장치를	-7707
▁의약품	-7708
서와	-7709
.7%	-7710
▁실업	-7711
사업을	-7712
▁CD	-7713
▁교사의	-7714
▁사람들	-7715
러블	-7716
▁행사가	-7717
▁등도	-7718
▁요구된다	-7719
▁고통	-7720
구청장	-7721
좋아요	-7722
▁인식하고	-7723
복실	-7724
▁복사	-7725
드릴게요	-7726
처가	-7727
▁아니야	-7728
▁십	-7729
▁수비	-7730
리포	-7731
▁위임	-7732
▁다르다	-7733
▁고등	-7734
▁쿼	-7735
▁무너	-7736
▁요양	-7737
▁화장품	-7738
▁프로그래	-7739
▁업종	-7740
▁신경망	-7741
▁크기는	-7742
▁심한	-7743
▁청와대	-7744
기본	-7745
▁멋진	-7746
▁순차적으로	-7747
▁열을	-7748
▁타임	-7749
▁연결되고	-7750
북도	-7751
▁내고	-7752
▁접종	-7753
▁건강을	-7754
▁잔류	-7755
사회의	-7756
▁월드컵	-7757
▁위치와	-7758
▁데이터와	-7759
공개	-7760
▁사기	-7761
부담	-7762
▁곳은	-7763
봤다	-7764
▁수탁	-7765
.9%	-7766
▁양국	-7767
▁비하여	-7768
▁셀룰	-7769
▁췌장	-7770
SA	-7771
▁하나요	-7772
▁DNA	-7773
▁회전축	-7774
.4%	-7775
되자	-7776
장치는	-7777
시민	-7778
주의적	-7779
▁쓰고	-7780
▁저를	-7781
▁건전	-7782
▁못해	-7783
▁오류	-7784
날로그	-7785
(60)	-7786
▁교육이	-7787
▁가맹	-7788
▁데에	-7789
▁매핑	-7790
▁일종의	-7791
▁증기	-7792
근로	-7793
▁일방	-7794
▁값은	-7795
▁전담	-7796
▁유의미한	-7797
▁포지	-7798
▁표적	-7799
▁없으며	-7800
▁좌측	-7801
▁기록했다	-7802
개인	-7803
▁질환의	-7804
▁늘고	-7805
▁중독	-7806
드러	-7807
▁그만큼	-7808
▁폐기물	-7809
가공	-7810
▁석탄	-7811
▁명확히	-7812
문은	-7813
'(	-7814
▁설득	-7815
▁차폐	-7816
▁토크	-7817
들과의	-7818
졌다고	-7819
▁여지가	-7820
▁좋겠습니다	-7821
▁증가했다	-7822
~3	-7823
.6%	-7824
▁입자의	-7825
다니	-7826
업계	-7827
인도	-7828
▁배향	-7829
um	-7830
▁분위기를	-7831
▁음주	-7832
▁절연막	-7833
▁왜냐하면	-7834
▁전부터	-7835
▁파악할	-7836
▁운영을	-7837
되지만	-7838
급여	-7839
▁기한	-7840
.8%	-7841
▁거친	-7842
▁뮤지	-7843
교육의	-7844
▁아직도	-7845
▁구제	-7846
▁전체를	-7847
▁정제	-7848
▁지지부	-7849
미널	-7850
▁이념	-7851
▁과연	-7852
▁얻기	-7853
▁기록을	-7854
▁논쟁	-7855
플루엔	-7856
▁폴리에스테르	-7857
▁검정	-7858
▁뜨거운	-7859
▁유전체	-7860
▁고려해야	-7861
▁되며	-7862
AI	-7863
색을	-7864
▁모드를	-7865
▁원을	-7866
▁전제로	-7867
▁39	-7868
더니	-7869
▁물에	-7870
▁필름을	-7871
▁문학	-7872
▁울산	-7873
▁주가	-7874
▁이재	-7875
▁즉각	-7876
▁완전한	-7877
란히	-7878
▁이주	-7879
▁정해	-7880
▁햅틱	-7881
선으로	-7882
▁탭	-7883
▁회동	-7884
자도	-7885
▁수렴	-7886
혁신	-7887
▁다섯	-7888
▁레일	-7889
하에서	-7890
▁서식	-7891
▁이제는	-7892
▁벨트	-7893
▁보아	-7894
▁원인을	-7895
▁한국을	-7896
▁이미지의	-7897
▁분들이	-7898
▁과제를	-7899
▁컨트롤	-7900
▁예로	-7901
▁시트를	-7902
▁전해질	-7903
당시	-7904
오고	-7905
▁사우	-7906
▁어드레스	-7907
▁실효	-7908
▁있었지만	-7909
ap	-7910
▁부진	-7911
▁대표가	-7912
(1000)	-7913
형은	-7914
▁주실	-7915
되므로	-7916
▁하나인	-7917
▁시작으로	-7918
▁195	-7919
▁생각하고	-7920
▁않았지만	-7921
차의	-7922
▁내는	-7923
▁북쪽	-7924
▁선도	-7925
▁아크릴	-7926
회와	-7927
▁장착된	-7928
▁제어하기	-7929
▁방어	-7930
▁대학생	-7931
▁전기적	-7932
▁상술한	-7933
▁공포	-7934
▁보냈	-7935
▁목적이	-7936
▁51	-7937
▁이해를	-7938
▁어셈블리	-7939
▁볼록	-7940
렉시	-7941
▁계속해서	-7942
▁스트리	-7943
▁역사를	-7944
▁스택	-7945
▁기반을	-7946
▁방수	-7947
경쟁	-7948
하였으나	-7949
▁인정하는	-7950
▁입찰	-7951
전체	-7952
▁요구를	-7953
건축	-7954
▁림프	-7955
▁돌아가	-7956
라엘	-7957
▁민사	-7958
화하기	-7959
▁고장	-7960
▁서류	-7961
▁유아	-7962
▁전류를	-7963
▁자원을	-7964
산염	-7965
▁블레이드	-7966
▁박리	-7967
▁확인되었다	-7968
▁부품을	-7969
▁위치로	-7970
▁징수	-7971
▁콘택	-7972
▁들어간	-7973
▁영향으로	-7974
▁이번이	-7975
▁가깝	-7976
▁매장	-7977
▁출석	-7978
효율	-7979
▁디바이스를	-7980
▁뭘	-7981
해온	-7982
▁CE	-7983
가루	-7984
군을	-7985
▁동원	-7986
집을	-7987
▁시작할	-7988
▁판매하는	-7989
고한	-7990
▁쉽고	-7991
▁태도를	-7992
▁이벤트를	-7993
스포츠	-7994
고에	-7995
수요	-7996
▁IC	-7997
▁기업을	-7998
▁준비를	-7999
▁암호화폐	-8000
▁북부	-8001
▁KBO	-8002
▁신제품	-8003
▁대하여는	-8004
냅니다	-8005
▁선행연구	-8006
▁손실을	-8007
시간이	-8008
싱턴	-8009
▁할로겐	-8010
▁행위에	-8011
▁만날	-8012
▁침투	-8013
▁기초한	-8014
▁모양의	-8015
자연	-8016
▁돌봄	-8017
▁두려	-8018
▁화려	-8019
▁600	-8020
▁발전에	-8021
▁주조	-8022
(25	-8023
표준	-8024
▁임의로	-8025
▁무한	-8026
▁구조에	-8027
▁다음의	-8028
▁모션	-8029
▁분쇄	-8030
▁피부를	-8031
▁줘	-8032
▁자석	-8033
▁만들었다	-8034
▁밀착	-8035
▁생성부	-8036
▁포스트	-8037
코드	-8038
▁동영	-8039
▁단계로	-8040
▁의원은	-8041
예방	-8042
▁pH	-8043
MF	-8044
▁인식이	-8045
▁조건이	-8046
크라	-8047
▁이사회	-8048
▁전체적으로	-8049
터에	-8050
님의	-8051
▁댐	-8052
위와	-8053
▁"'	-8054
▁사업은	-8055
▁너는	-8056
▁생겼	-8057
▁투어	-8058
화되어	-8059
냐는	-8060
래그	-8061
▁일대	-8062
펀드	-8063
업의	-8064
▁가볍	-8065
▁얇은	-8066
▁경찰이	-8067
십니다	-8068
▁변수를	-8069
길이	-8070
좋은	-8071
▁다층	-8072
▁설명을	-8073
▁말레이시아	-8074
값은	-8075
▁발레	-8076
▁작용을	-8077
▁판단하는	-8078
렀다	-8079
▁스캐	-8080
▁장기간	-8081
▁큐	-8082
편을	-8083
▁제어기	-8084
▁리더십	-8085
▁공동으로	-8086
▁임명	-8087
OC	-8088
▁시술	-8089
▁80%	-8090
▁중국에서	-8091
상담	-8092
▁협동	-8093
▁벌써	-8094
▁구조적	-8095
▁명을	-8096
27	-8097
▁스테인	-8098
▁내다	-8099
았을	-8100
▁들여	-8101
▁수익을	-8102
▁구조물	-8103
▁압연	-8104
단지	-8105
▁감상	-8106
확인	-8107
▁이동하는	-8108
차에	-8109
▁스페이	-8110
▁본교	-8111
▁인민	-8112
▁바이어	-8113
▁태풍	-8114
▁승인을	-8115
▁올리고	-8116
▁결핵	-8117
▁따뜻한	-8118
▁핸들	-8119
▁사이에는	-8120
▁드럼	-8121
ure	-8122
▁벤처	-8123
비로	-8124
▁이름이	-8125
▁진행될	-8126
▁거기에	-8127
들어	-8128
요일에	-8129
▁부재는	-8130
(240)	-8131
▁영역으로	-8132
▁전달하는	-8133
▁닿	-8134
he	-8135
전과	-8136
▁이어서	-8137
▁피부에	-8138
고요	-8139
하기가	-8140
▁'20	-8141
▁넥	-8142
지요	-8143
제어부	-8144
▁바인	-8145
▁역대	-8146
▁남부	-8147
▁동맥	-8148
▁이해하고	-8149
▁이민	-8150
▁성분이	-8151
▁해당한다	-8152
우가	-8153
▁개질	-8154
▁고기	-8155
▁바깥	-8156
보면	-8157
사이드	-8158
무가	-8159
▁부착된	-8160
SP	-8161
▁강원도	-8162
▁평가가	-8163
▁구획	-8164
▁일어난	-8165
▁오브젝트	-8166
▁배포	-8167
▁부각	-8168
▁빈곤	-8169
▁트래	-8170
▁조심	-8171
▁요소의	-8172
▁전달할	-8173
▁분석하고	-8174
▁야구	-8175
▁본체의	-8176
▁생활을	-8177
▁2004	-8178
▁분석하는	-8179
▁사항에	-8180
보다도	-8181
▁시리아	-8182
▁안녕하세요	-8183
▁코드를	-8184
▁달라질	-8185
▁아래의	-8186
▁연말	-8187
▁~	-8188
복을	-8189
▁범위의	-8190
▁추진하고	-8191
▁전반적으로	-8192
▁몸체	-8193
of	-8194
▁관계는	-8195
▁농도가	-8196
▁후에는	-8197
▁중학교	-8198
▁인증을	-8199
▁진심으로	-8200
▁바꿔	-8201
▁전하	-8202
▁요건을	-8203
▁팁	-8204
▁허리	-8205
▁노트북	-8206
▁법원	-8207
▁붙여	-8208
▁에폭시	-8209
▁연구와	-8210
▁중계	-8211
▁파리	-8212
▁아날로그	-8213
이거	-8214
량으로	-8215
.1%	-8216
▁번째로	-8217
▁많지	-8218
▁1.5	-8219
유닛	-8220
▁야생	-8221
▁있는지를	-8222
보조	-8223
▁소비자의	-8224
▁몸을	-8225
공항	-8226
DL	-8227
어버	-8228
▁면에서	-8229
▁엄청난	-8230
▁에볼라	-8231
▁의류	-8232
화학식	-8233
▁길이를	-8234
디스	-8235
▁소재로	-8236
▁유닛은	-8237
▁주력	-8238
▁출력을	-8239
▁콘텐츠의	-8240
▁소결	-8241
받았다	-8242
내기	-8243
▁귀속	-8244
▁징역	-8245
▁맛있는	-8246
▁획득된	-8247
▁프로젝트를	-8248
세에	-8249
28	-8250
MA	-8251
트륨	-8252
▁탐지	-8253
사회적	-8254
▁경쟁력	-8255
▁기술에	-8256
▁차량을	-8257
▁과학기술	-8258
▁결과적으로	-8259
▁모발	-8260
▁수단으로	-8261
아리	-8262
▁뉴스	-8263
▁받기	-8264
▁진정한	-8265
▁한국이	-8266
▁쏠	-8267
∼20	-8268
▁1%	-8269
▁시일	-8270
▁위축	-8271
▁비싸	-8272
구청장은	-8273
▁가리	-8274
▁탄생	-8275
▁레이어	-8276
▁분석은	-8277
▁즐거운	-8278
▁난방	-8279
▁터키	-8280
▁열린다	-8281
▁빙	-8282
▁레버	-8283
▁신생	-8284
▁필드	-8285
됐으며	-8286
▁기간은	-8287
▁수준에서	-8288
기금	-8289
전력	-8290
▁배려	-8291
▁늘었다	-8292
▁자외선	-8293
▁에스테르	-8294
▁지역으로	-8295
▁식사를	-8296
겨진	-8297
▁당장	-8298
▁매달	-8299
▁구체적	-8300
▁배열된	-8301
▁이동할	-8302
▁틈	-8303
▁그와	-8304
▁스탠	-8305
례를	-8306
▁급격히	-8307
▁제품으로	-8308
▁처음이다	-8309
비와	-8310
주기	-8311
▁전남	-8312
▁불평등	-8313
▁1980	-8314
인들은	-8315
▁출혈	-8316
▁미국은	-8317
▁일간	-8318
▁전략적	-8319
▁펀드	-8320
▁노이즈	-8321
▁인정할	-8322
▁결정된다	-8323
올림픽	-8324
▁요리를	-8325
▁감소하는	-8326
행이	-8327
지스트	-8328
▁관리에	-8329
▁평등	-8330
▁수단과	-8331
▁에이전	-8332
▁구성되고	-8333
▁대부분이	-8334
▁영향력을	-8335
▁손흥	-8336
▁가능성	-8337
론은	-8338
플릿	-8339
▁줄이는	-8340
▁캡슐	-8341
▁건강보험	-8342
▁고압	-8343
▁카테고	-8344
▁거주하는	-8345
건에	-8346
▁그랬	-8347
▁250	-8348
서리	-8349
▁발사	-8350
▁옆에	-8351
▁46	-8352
▁건너	-8353
시간을	-8354
해왔다	-8355
▁앵	-8356
정과	-8357
▁느끼는	-8358
▁중개	-8359
▁핫	-8360
▁양태	-8361
▁이스	-8362
▁주셨	-8363
▁맞추어	-8364
▁피해자	-8365
장기	-8366
▁적법	-8367
▁근처에	-8368
▁주변의	-8369
▁유지하기	-8370
▁시대에	-8371
▁기사	-8372
▁사실이다	-8373
▁교육에	-8374
▁남성이	-8375
▁공급되는	-8376
▁연예	-8377
▁동적	-8378
▁봉쇄	-8379
▁전술한	-8380
▁투자가	-8381
▁세균	-8382
▁학문	-8383
▁디자인을	-8384
SC	-8385
목의	-8386
SB	-8387
면적	-8388
▁70%	-8389
▁로직	-8390
▁편성	-8391
▁적절하게	-8392
▁구글	-8393
▁새벽	-8394
▁나아	-8395
▁지붕	-8396
▁드물	-8397
IV	-8398
신경	-8399
▁궁극	-8400
▁차원	-8401
▁트레	-8402
▁추구하는	-8403
▁입을	-8404
정으로	-8405
▁전투	-8406
▁행사에	-8407
▁음악을	-8408
▁구분하여	-8409
▁오래된	-8410
▁재구성	-8411
▁경쟁력을	-8412
▁아니라고	-8413
▁검지	-8414
(24	-8415
▁배합	-8416
전으로	-8417
▁과제로	-8418
▁결승	-8419
하라	-8420
▁인체	-8421
▁프로세서는	-8422
워요	-8423
직원	-8424
▁형법	-8425
되는지	-8426
▁규명	-8427
사항을	-8428
▁적용한	-8429
▁나타냈다	-8430
적일	-8431
함유	-8432
▁선택을	-8433
▁체계를	-8434
▁서쪽	-8435
▁세계의	-8436
▁일하는	-8437
블록	-8438
즈를	-8439
께서는	-8440
하였다고	-8441
러닝	-8442
▁역학	-8443
▁법무	-8444
동맥	-8445
▁주방	-8446
▁기여할	-8447
▁박물	-8448
(122)	-8449
만족	-8450
▁대학교	-8451
▁장르	-8452
▁이어지고	-8453
▁삼성전	-8454
인당	-8455
▁소장	-8456
▁하향	-8457
미래	-8458
▁끊임	-8459
▁런던	-8460
▁프로브	-8461
▁셰	-8462
▁거론	-8463
▁면에	-8464
▁시사한다	-8465
▁앞으로도	-8466
▁상실	-8467
▁기능은	-8468
▁측면을	-8469
▁확보할	-8470
▁확실하게	-8471
▁학생들에게	-8472
▁복구	-8473
▁분이	-8474
채권	-8475
▁학업	-8476
▁상응하는	-8477
▁디스플레이부	-8478
심사	-8479
▁간극	-8480
▁신분	-8481
▁있죠	-8482
▁걸림	-8483
시까지	-8484
▁스토리지	-8485
▁오리	-8486
영화	-8487
막의	-8488
▁DC	-8489
▁대상을	-8490
▁떨어지는	-8491
▁명확하게	-8492
▁그럴	-8493
▁학술	-8494
▁대화를	-8495
▁관리가	-8496
▁당사자	-8497
▁질문을	-8498
▁측정할	-8499
기후	-8500
26	-8501
▁처리된	-8502
▁평양	-8503
▁하자	-8504
▁주장이	-8505
▁줄이기	-8506
▁항소	-8507
▁계기가	-8508
진과	-8509
▁공구	-8510
월에는	-8511
주와	-8512
▁브랜	-8513
▁실용	-8514
▁안전을	-8515
▁주문한	-8516
▁구성요소	-8517
▁씻	-8518
▁많습니다	-8519
바닥	-8520
이너	-8521
▁본격적인	-8522
▁농축	-8523
▁불가능한	-8524
▁세그먼트	-8525
▁사안	-8526
▁지방자치단	-8527
파로	-8528
▁태국	-8529
▁옷을	-8530
▁향한	-8531
마지막	-8532
▁하거나	-8533
(17)	-8534
▁눌	-8535
▁에칭	-8536
▁컨설	-8537
기에는	-8538
▁앤	-8539
▁평탄	-8540
MO	-8541
▁전송하는	-8542
▁극단	-8543
▁아빠	-8544
▁주위에	-8545
▁캐비티	-8546
▁탄화수소	-8547
▁시급	-8548
▁줄이고	-8549
▁원인으로	-8550
앞서	-8551
이미지	-8552
▁사이드	-8553
▁카메라를	-8554
고속	-8555
이들	-8556
▁공제	-8557
▁직선	-8558
이던	-8559
▁선출	-8560
▁VR	-8561
▁추억	-8562
▁할지	-8563
▁신청을	-8564
▁향상된	-8565
▁:	-8566
▁산하	-8567
▁답변을	-8568
▁센서는	-8569
▁생성하고	-8570
▁의미하는	-8571
개혁	-8572
▁동쪽	-8573
▁호흡기	-8574
▁실시형태	-8575
파를	-8576
▁앉아	-8577
▁공공기관	-8578
▁주민들이	-8579
서버	-8580
▁정량	-8581
▁위치가	-8582
▁가능성은	-8583
▁추정된다	-8584
▁90%	-8585
사일	-8586
▁설명하는	-8587
락을	-8588
▁아시안	-8589
▁시야	-8590
▁실시예는	-8591
▁주장한다	-8592
▁층의	-8593
▁솔루션	-8594
▁조치가	-8595
▁이같이	-8596
▁자유한국	-8597
▁지질	-8598
▁칼슘	-8599
하다가	-8600
▁이것에	-8601
결을	-8602
▁읽어	-8603
▁눈길을	-8604
▁전극을	-8605
변수	-8606
부산	-8607
▁내린	-8608
▁개시한다	-8609
▁무인	-8610
▁분포를	-8611
▁필터링	-8612
용의	-8613
▁자문	-8614
▁이루어졌다	-8615
▁거절	-8616
▁페이스북	-8617
▁피로	-8618
▁형상으로	-8619
놀이	-8620
비에	-8621
▁명백	-8622
▁좋고	-8623
▁광범위한	-8624
▁대여	-8625
전시	-8626
▁관람객	-8627
▁썼	-8628
▁곳을	-8629
하시고	-8630
에서부터	-8631
SD	-8632
▁자는	-8633
▁갈수록	-8634
▁의원이	-8635
▁소음	-8636
텍스트	-8637
▁이름은	-8638
▁기판에	-8639
▁박람	-8640
▁거래가	-8641
해주는	-8642
▁학습을	-8643
▁수용하는	-8644
이사	-8645
년과	-8646
▁기술과	-8647
▁드러나	-8648
▁접지	-8649
주의의	-8650
35	-8651
라서	-8652
▁앨범	-8653
이브	-8654
▁구상	-8655
▁40%	-8656
▁마커	-8657
▁총리는	-8658
▁밟	-8659
▁의거	-8660
▁마운	-8661
▁명확한	-8662
설이	-8663
▁옛날	-8664
▁대표하는	-8665
중인	-8666
▁크지	-8667
▁물품을	-8668
▁합리적	-8669
CP	-8670
문제	-8671
▁소모	-8672
▁눈을	-8673
▁능동	-8674
▁없어서	-8675
3-	-8676
▁단계에	-8677
▁얻고	-8678
▁판별	-8679
▁의사가	-8680
해주셔서	-8681
으시	-8682
▁며칠	-8683
브리드	-8684
▁일차	-8685
▁AR	-8686
▁거라고	-8687
▁내주	-8688
▁당선	-8689
▁이용될	-8690
자로서	-8691
▁제도가	-8692
지수	-8693
▁저온	-8694
▁감염된	-8695
▁송금	-8696
▁예에서	-8697
▁감사하겠습니다	-8698
▁계곡	-8699
▁권력	-8700
▁여가	-8701
▁아니에요	-8702
하라고	-8703
▁대표팀	-8704
▁예약을	-8705
▁단속	-8706
▁트랜스	-8707
▁할머니	-8708
시장의	-8709
선택	-8710
▁어려움	-8711
통제	-8712
▁온도에서	-8713
▁유용하다	-8714
쉽게	-8715
스크린	-8716
▁Fig	-8717
행사	-8718
▁2003	-8719
조절	-8720
▁실험을	-8721
▁달성하기	-8722
채널	-8723
▁살균	-8724
▁친화	-8725
▁약간의	-8726
▁유튜브	-8727
▁담고	-8728
▁유병	-8729
▁거짓	-8730
▁몰랐	-8731
▁이룬	-8732
▁이하로	-8733
▁수행하고	-8734
▁보내드리겠습니다	-8735
▁걸려	-8736
▁문항	-8737
▁적발	-8738
▁회장은	-8739
▁보드	-8740
▁중구	-8741
▁앱을	-8742
된다면	-8743
▁개인이	-8744
▁관계자	-8745
▁없도록	-8746
▁교반	-8747
▁파악하고	-8748
▁나타내었다	-8749
인터넷	-8750
▁공간의	-8751
▁빛을	-8752
▁한층	-8753
었으며	-8754
▁프로필	-8755
▁적합합니다	-8756
▁교과서	-8757
▁주식을	-8758
▁마친	-8759
무는	-8760
▁구독	-8761
▁입력부	-8762
▁떠오	-8763
화되는	-8764
▁아니지만	-8765
▁매니저	-8766
▁트리거	-8767
▁이동을	-8768
▁확산을	-8769
▁결정하고	-8770
나라는	-8771
▁미세먼지	-8772
▁재해	-8773
▁들어가는	-8774
▁가벼운	-8775
▁에틸렌	-8776
▁서열	-8777
▁변화와	-8778
▁곤란	-8779
▁대응하여	-8780
▁도지사는	-8781
AP	-8782
▁소자를	-8783
▁위원회	-8784
▁프레임을	-8785
▁깜	-8786
▁라디	-8787
▁두드러	-8788
▁하에서	-8789
▁결론을	-8790
▁조절할	-8791
청의	-8792
▁부르	-8793
았어	-8794
ir	-8795
▁승리	-8796
▁구멍을	-8797
▁2002	-8798
▁젖	-8799
▁이해하는	-8800
▁부가가치	-8801
▁사무실	-8802
▁플랜지	-8803
▁소녀	-8804
▁목소리가	-8805
▁비교해	-8806
▁시대의	-8807
▁전까지	-8808
실시예	-8809
▁척추	-8810
▁코너	-8811
▁내시경	-8812
▁임차	-8813
▁중국과	-8814
▁『	-8815
두에	-8816
본을	-8817
▁참석해	-8818
테로	-8819
▁일이다	-8820
▁플랫폼을	-8821
증과	-8822
정치	-8823
▁유도체	-8824
상선	-8825
▁사물	-8826
▁항생	-8827
▁활약	-8828
▁규제를	-8829
▁끓	-8830
▁75	-8831
▁했을	-8832
프레임	-8833
티나	-8834
▁줄여	-8835
IT	-8836
ay	-8837
▁점수를	-8838
▁증가하였다	-8839
▁소식	-8840
▁방향과	-8841
▁매트릭스	-8842
석의	-8843
▁이론적	-8844
▁일상생활	-8845
▁이스라엘	-8846
▁면담	-8847
받지	-8848
▁홀로	-8849
▁폭이	-8850
▁화폐	-8851
▁이르기	-8852
▁있을지	-8853
됐던	-8854
▁내용과	-8855
▁시간의	-8856
안정	-8857
▁수확	-8858
▁변수로	-8859
▁검은	-8860
▁무엇이	-8861
▁절연층	-8862
▁치료가	-8863
▁팝	-8864
르몬	-8865
▁제시하는	-8866
▁높여	-8867
▁그것에	-8868
▁살펴볼	-8869
▁현재는	-8870
▁방지하는	-8871
▁종래	-8872
바이오	-8873
▁후면	-8874
GF	-8875
진료	-8876
▁고도	-8877
▁이걸	-8878
VD	-8879
맞춤	-8880
▁구할	-8881
▁못한다	-8882
▁크림	-8883
재에	-8884
▁라디오	-8885
▁중에는	-8886
▁상관없이	-8887
▁응축	-8888
▁접속된	-8889
베이터	-8890
▁시가	-8891
▁웨어	-8892
▁원내	-8893
(42)	-8894
씨를	-8895
MD	-8896
▁소견	-8897
달러입니다	-8898
▁기하	-8899
▁담겨	-8900
▁담아	-8901
▁높다는	-8902
▁장치에서	-8903
▁즐기	-8904
▁위원장은	-8905
▁포맷	-8906
우리가	-8907
▁밀접한	-8908
▁세미나	-8909
▁저축	-8910
▁배관	-8911
(200	-8912
▁자리에	-8913
▁동맹	-8914
▁태도	-8915
▁투수	-8916
▁방안이	-8917
▁범위가	-8918
▁오페라	-8919
▁치료하는	-8920
▁기록한	-8921
안보	-8922
▁국소	-8923
▁찌	-8924
▁부직	-8925
▁사찰	-8926
▁헤어	-8927
▁근로자	-8928
라스	-8929
▁99	-8930
▁마크	-8931
▁예산의	-8932
▁하에	-8933
▁기업가	-8934
(250)	-8935
▁54	-8936
▁평가할	-8937
▁맹	-8938
▁넣고	-8939
▁중반	-8940
(121)	-8941
런스	-8942
▁돈이	-8943
▁카탈	-8944
▁상품이	-8945
▁원칙을	-8946
▁방과	-8947
▁요청할	-8948
금에	-8949
▁걸린	-8950
▁판단을	-8951
▁받침	-8952
금지	-8953
▁일으키	-8954
SS	-8955
▁춘	-8956
탄올	-8957
▁본인	-8958
▁필라	-8959
방법에	-8960
▁소리를	-8961
▁쓰레기	-8962
▁워싱턴	-8963
▁정책적	-8964
집행	-8965
피를	-8966
▁날개	-8967
▁경찰에	-8968
CR	-8969
▁130	-8970
▁뿐이다	-8971
▁음식이	-8972
▁cm	-8973
아노	-8974
아세	-8975
▁머신	-8976
▁아니라는	-8977
▁세션	-8978
▁상태다	-8979
▁소아	-8980
▁투자자	-8981
▁내외	-8982
전환	-8983
측의	-8984
▁따르는	-8985
테리아	-8986
▁지위를	-8987
▁감소시키는	-8988
▁투영	-8989
▁행사는	-8990
석은	-8991
수입	-8992
▁아이스	-8993
금으로	-8994
초등학교	-8995
▁브러	-8996
▁캡처	-8997
▁국세	-8998
신호를	-8999
▁스테이션	-9000
▁영역과	-9001
▁47	-9002
▁II	-9003
▁나쁜	-9004
▁입장에서	-9005
▁내세	-9006
해주세요	-9007
▁측이	-9008
시간에	-9009
▁경우의	-9010
▁연속적으로	-9011
▁넘게	-9012
▁점수	-9013
▁CN	-9014
되는데	-9015
▁이후의	-9016
▁두께를	-9017
▁정도에	-9018
▁폴리올	-9019
▁자궁	-9020
▁공연이	-9021
os	-9022
▁되돌	-9023
▁부처	-9024
▁순으로	-9025
힌다	-9026
▁당부했다	-9027
▁과일	-9028
▁저장될	-9029
▁추출된	-9030
(31	-9031
▁기증	-9032
사용자	-9033
▁간호사	-9034
▁되는데	-9035
▁분리된	-9036
▁의사소통	-9037
죄의	-9038
▁자국	-9039
▁가죽	-9040
담보	-9041
▁정도는	-9042
▁감소시킬	-9043
▁보고서를	-9044
전화	-9045
(34)	-9046
oT	-9047
▁저의	-9048
▁의지를	-9049
▁재료는	-9050
▁호출	-9051
▁스웨	-9052
천이	-9053
▁도심	-9054
▁차량용	-9055
▁추진하는	-9056
▁53	-9057
▁UE	-9058
▁무엇인지	-9059
▁도체	-9060
▁느낌을	-9061
▁정상회의	-9062
하시기	-9063
▁영국의	-9064
▁유럽의	-9065
▁가용	-9066
▁편향	-9067
장치의	-9068
▁소독	-9069
리면서	-9070
▁계획이	-9071
▁돌연	-9072
▁주장하는	-9073
것도	-9074
▁강릉	-9075
▁광고를	-9076
▁아마도	-9077
▁있었다고	-9078
▁GDP	-9079
▁외부로	-9080
▁병행	-9081
은행의	-9082
(25)	-9083
▁5,	-9084
▁사장님	-9085
▁혼합물	-9086
절한	-9087
▁제시된	-9088
▁프로그래밍	-9089
pm	-9090
▁찾은	-9091
예컨대	-9092
▁모델에	-9093
▁드러났다	-9094
마저	-9095
▁HCC	-9096
▁의무가	-9097
학년도	-9098
계약을	-9099
▁재질	-9100
▁대두	-9101
▁응원	-9102
제로서	-9103
○○	-9104
▁기소	-9105
▁제조할	-9106
▁OECD	-9107
▁국경	-9108
▁당일	-9109
▁미래에	-9110
▁실리카	-9111
▁영화를	-9112
▁동네	-9113
선에서	-9114
▁이해관계	-9115
적입니다	-9116
▁원통형	-9117
▁징계	-9118
는지를	-9119
▁발견된	-9120
▁프레스	-9121
타를	-9122
▁무작	-9123
돼야	-9124
▁대다	-9125
▁흔히	-9126
▁않다고	-9127
▁지역이	-9128
▁표시부	-9129
▁억제하는	-9130
하죠	-9131
▁택시	-9132
▁혈압	-9133
▁스틸	-9134
배를	-9135
▁사건의	-9136
▁한국어	-9137
▁낮게	-9138
시설을	-9139
▁국가에	-9140
▁확인한	-9141
▁객실	-9142
▁빈번	-9143
▁강도가	-9144
▁근거가	-9145
▁연결을	-9146
▁주장을	-9147
▁프레임의	-9148
▁매도	-9149
▁그림을	-9150
▁편안한	-9151
리학적	-9152
▁간염	-9153
▁미니	-9154
▁폴리아	-9155
구로	-9156
▁아들	-9157
베이어	-9158
더링	-9159
8,	-9160
도서	-9161
▁돌파	-9162
▁두산	-9163
▁고의	-9164
▁떠올	-9165
▁자성	-9166
▁법인세	-9167
▁노후	-9168
▁미립	-9169
▁물질로	-9170
타르	-9171
▁적용된다	-9172
ity	-9173
▁애플	-9174
▁방문객	-9175
▁인출	-9176
▁대책을	-9177
▁세포의	-9178
▁글리	-9179
▁노력하고	-9180
▁달에	-9181
▁당국이	-9182
가와	-9183
세스	-9184
▁밀폐	-9185
▁대출을	-9186
▁기존에	-9187
▁사고를	-9188
▁올랐다	-9189
하였는데	-9190
축제	-9191
▁모르는	-9192
▁장소를	-9193
▁딥	-9194
▁부회	-9195
행위를	-9196
▁안정성을	-9197
럭시	-9198
▁재미있	-9199
▁회의에서	-9200
이동	-9201
중의	-9202
▁전세	-9203
▁떡	-9204
▁놀이	-9205
▁파생	-9206
▁적외선	-9207
▁다운로드	-9208
발생	-9209
▁우선순	-9210
▁책임이	-9211
▁올린	-9212
▁일환으로	-9213
▁진행한다	-9214
되었다는	-9215
▁전망된다	-9216
▁갭	-9217
▁눈이	-9218
▁면제	-9219
▁없었던	-9220
29	-9221
▁%	-9222
름을	-9223
하니	-9224
▁대칭	-9225
▁개발이	-9226
▁맑	-9227
▁류현	-9228
▁저소득	-9229
▁핑	-9230
▁적용된	-9231
▁소비자가	-9232
▁이루어지지	-9233
▁결코	-9234
▁덮개	-9235
▁직렬	-9236
▁변화의	-9237
▁비록	-9238
▁읽기	-9239
▁터널	-9240
▁검출할	-9241
호흡	-9242
▁보호하기	-9243
▁스트리밍	-9244
▁입학	-9245
▁협업	-9246
▁참여해	-9247
투명	-9248
▁요소로	-9249
▁귀국	-9250
졌다는	-9251
▁섬유를	-9252
주도	-9253
▁케이싱	-9254
▁스테인리스	-9255
▁모으	-9256
▁북극	-9257
할게요	-9258
각의	-9259
일러	-9260
전달	-9261
▁업그	-9262
▁층은	-9263
▁펩	-9264
호서	-9265
건으로	-9266
률과	-9267
▁감광	-9268
▁비교할	-9269
▁관리할	-9270
▁내구성이	-9271
▁파라미터를	-9272
▁붉	-9273
▁시료	-9274
포인트	-9275
▁"3	-9276
▁문화재	-9277
▁역할이	-9278
계획을	-9279
▁담당하는	-9280
부터는	-9281
▁지니고	-9282
플루엔자	-9283
강도	-9284
▁통과하는	-9285
널드	-9286
바람	-9287
▁공원	-9288
▁특성과	-9289
연이	-9290
▁DB	-9291
▁동북	-9292
▁준비하는	-9293
▁획득하는	-9294
▁속한	-9295
▁이번에는	-9296
끼리	-9297
▁경력	-9298
▁CCT	-9299
▁가족이	-9300
감사합니다	-9301
촬영	-9302
▁이소	-9303
▁들었다	-9304
▁행복한	-9305
▁툴	-9306
져서	-9307
리포니아	-9308
▁하이브리드	-9309
▁이외에	-9310
▁조용	-9311
▁제한된	-9312
▁있었어요	-9313
인권	-9314
IC	-9315
▁호환	-9316
▁둥	-9317
매매	-9318
▁모래	-9319
▁스코	-9320
▁부대	-9321
▁필요에	-9322
해결	-9323
▁의학	-9324
등의	-9325
▁이성	-9326
타이드	-9327
▁대응할	-9328
▁추론	-9329
▁늘어날	-9330
특정	-9331
▁수준은	-9332
▁환경의	-9333
▁아우	-9334
▁간격을	-9335
▁작용하는	-9336
▁화합물은	-9337
▁설정하는	-9338
▁부모님	-9339
▁뻗	-9340
▁심층	-9341
▁그녀가	-9342
▁사용에	-9343
▁조사한	-9344
▁후에도	-9345
▁거치	-9346
▁환경이	-9347
▁생물학적	-9348
부장	-9349
▁신한	-9350
▁탁월	-9351
▁폭력	-9352
▁수용체	-9353
▁없으면	-9354
▁국가에서	-9355
▁체포	-9356
프리카	-9357
▁효과에	-9358
▁덩	-9359
컴퓨	-9360
▁일회	-9361
▁센서의	-9362
▁대통령과	-9363
아버	-9364
▁지리	-9365
▁모드로	-9366
▁영상의	-9367
▁대변인은	-9368
ate	-9369
▁연구팀은	-9370
인데요	-9371
▁전체에	-9372
▁주관적	-9373
▁측정한	-9374
수용	-9375
내의	-9376
수술	-9377
법원	-9378
색이	-9379
▁서술	-9380
▁가격으로	-9381
통합	-9382
▁켜	-9383
타임	-9384
▁보내는	-9385
▁요구에	-9386
▁열처리	-9387
▁특징은	-9388
▁유익	-9389
▁정류	-9390
▁대상의	-9391
8%	-9392
▁납품	-9393
▁미흡	-9394
▁비치	-9395
▁내재	-9396
▁배설	-9397
▁신천	-9398
▁탐구	-9399
▁오빠	-9400
▁사례는	-9401
▁상부에	-9402
접촉	-9403
▁도는	-9404
▁배정	-9405
▁가산	-9406
▁동력	-9407
결과를	-9408
▁농도를	-9409
차로	-9410
나마	-9411
▁시멘트	-9412
▁금형	-9413
▁패러	-9414
이들은	-9415
▁기능에	-9416
▁아름다	-9417
율과	-9418
음에	-9419
심한	-9420
▁이미지가	-9421
▁길게	-9422
(106)	-9423
▁겪는	-9424
▁조정할	-9425
▁부분과	-9426
▁돋	-9427
채무	-9428
회계	-9429
▁국정	-9430
▁만남	-9431
▁신중	-9432
콘텐츠	-9433
▁환자와	-9434
▁귀하께서	-9435
▁선호하는	-9436
▁응집	-9437
▁질병관리	-9438
▁더미	-9439
▁바른	-9440
▁어우	-9441
▁조약	-9442
▁메이저	-9443
▁데뷔	-9444
▁스테이	-9445
▁특성상	-9446
▁비추어	-9447
▁내내	-9448
물질을	-9449
▁곧바로	-9450
▁이익이	-9451
GB	-9452
▁변위	-9453
▁쓰기	-9454
▁남겨	-9455
▁수수료	-9456
▁설치되는	-9457
▁그들	-9458
▁표시될	-9459
달라고	-9460
▁생각해요	-9461
러리	-9462
효과를	-9463
▁연금	-9464
▁아니한	-9465
낸다	-9466
▁시각적	-9467
▁학교에	-9468
▁임원	-9469
▁시상	-9470
▁정맥	-9471
▁체류	-9472
▁클럭	-9473
▁강화를	-9474
▁뛰어나	-9475
▁사회에	-9476
▁엉	-9477
호는	-9478
▁전망했다	-9479
(60	-9480
▁이용자	-9481
▁레지스터	-9482
▁유산	-9483
▁충실	-9484
▁이산화탄소	-9485
▁브리	-9486
▁출현	-9487
▁확률이	-9488
다이	-9489
▁감정을	-9490
▁신속한	-9491
왔습니다	-9492
▁CCTV	-9493
2%	-9494
▁불이	-9495
▁제도적	-9496
▁설정될	-9497
▁일반적	-9498
기계	-9499
▁위기에	-9500
▁원칙에	-9501
▁차량에	-9502
▁때부터	-9503
▁아이디어를	-9504
법률	-9505
▁광섬유	-9506
▁전반에	-9507
렌즈	-9508
▁쇼핑몰	-9509
(420)	-9510
▁지주	-9511
▁치환된	-9512
OI	-9513
▁공화	-9514
▁몸에	-9515
됐지만	-9516
▁r	-9517
셨어요	-9518
LS	-9519
▁해변	-9520
▁앙	-9521
▁아티	-9522
▁사랑을	-9523
▁정당한	-9524
▁적재	-9525
AD	-9526
▁세종	-9527
▁계약의	-9528
▁빠르고	-9529
▁올라가	-9530
▁태스크	-9531
▁화면에	-9532
▁언제나	-9533
▁개별적으로	-9534
▁진행하였다	-9535
▁연도	-9536
▁풀어	-9537
▁다공성	-9538
▁시사점을	-9539
대사	-9540
주의를	-9541
▁미래를	-9542
자나	-9543
19)	-9544
▁인테	-9545
▁전북	-9546
▁되면서	-9547
▁즐겁	-9548
우레탄	-9549
▁정부에	-9550
▁조립체	-9551
▁문화예술	-9552
▁참석했다	-9553
▁서서	-9554
▁기업과	-9555
▁상표	-9556
▁줄기	-9557
▁외부에	-9558
▁대부분은	-9559
완전	-9560
▁확충	-9561
▁규모는	-9562
▁영향에	-9563
▁방열	-9564
▁액션	-9565
차량	-9566
▁정화	-9567
▁등록된	-9568
▁모델이	-9569
기한	-9570
▁이미지에	-9571
▁손상을	-9572
▁총괄	-9573
▁여부가	-9574
▁이집	-9575
▁경쟁이	-9576
골을	-9577
공을	-9578
악의	-9579
▁안정화	-9580
▁자체를	-9581
▁이용되는	-9582
▁폭염	-9583
▁포함됩니다	-9584
재와	-9585
▁순위	-9586
국으로	-9587
연구원	-9588
▁문제와	-9589
▁어렵다는	-9590
▁최저임금	-9591
▁구단	-9592
▁대륙	-9593
았다고	-9594
▁설명할	-9595
▁고려하면	-9596
▁194	-9597
▁뮤지컬	-9598
▁스튜	-9599
▁캠핑	-9600
▁경우와	-9601
▁엄격한	-9602
▁첫째	-9603
▁프로파일	-9604
▁종래의	-9605
36	-9606
규제	-9607
야구	-9608
▁직교	-9609
▁미래의	-9610
▁비정상	-9611
▁취득한	-9612
▁실시하고	-9613
▁성공적인	-9614
▁우유	-9615
▁드레인	-9616
▁목록을	-9617
▁편입	-9618
▁주목할	-9619
작업	-9620
▁덮는	-9621
▁추측	-9622
층으로	-9623
▁출력한다	-9624
▁학교에서	-9625
▁들을	-9626
▁협상을	-9627
▁제시한다	-9628
▁향상시키는	-9629
▁떼	-9630
▁펠	-9631
슬람	-9632
IN	-9633
등을	-9634
용품	-9635
▁용도	-9636
로에	-9637
▁아예	-9638
▁공산	-9639
▁사태가	-9640
▁허위	-9641
▁있어도	-9642
▁검사에서	-9643
▁구성으로	-9644
발광	-9645
성능	-9646
줬다	-9647
테인	-9648
▁고형	-9649
▁미러	-9650
▁아까	-9651
▁중지	-9652
▁봉투	-9653
▁양이	-9654
▁상반기	-9655
▁균형을	-9656
▁보아야	-9657
▁있었는데	-9658
▁참조하여	-9659
▁UI	-9660
▁실시하는	-9661
▁햇	-9662
(330)	-9663
대문	-9664
▁규정은	-9665
▁놓여	-9666
▁쿠션	-9667
▁할인을	-9668
▁샀	-9669
▁데이	-9670
▁솔직	-9671
식에서	-9672
▁전망이	-9673
▁클러스터	-9674
▁자료가	-9675
▁지나치게	-9676
▁정보통신	-9677
▁컨베이어	-9678
판은	-9679
호로	-9680
▁돕는	-9681
▁바인더	-9682
▁존재할	-9683
▁그럼에도	-9684
클럽	-9685
▁상한	-9686
▁없애	-9687
▁동아시아	-9688
▁공을	-9689
민주당	-9690
-1)	-9691
7%	-9692
▁상면	-9693
휘발성	-9694
▁모델링	-9695
▁연구개발	-9696
▁우수하고	-9697
다리	-9698
▁고마	-9699
▁클로	-9700
▁김정은	-9701
▁유리한	-9702
▁구성한다	-9703
▁파지	-9704
였고	-9705
▁기구를	-9706
▁트레이닝	-9707
▁거대한	-9708
▁기관이	-9709
여성	-9710
▁확인했다	-9711
▁원주	-9712
▁어디에	-9713
중합	-9714
▁용액을	-9715
▁이르기까지	-9716
▁강철	-9717
▁생길	-9718
▁독일의	-9719
▁묘사	-9720
▁장갑	-9721
▁다음달	-9722
▁소송을	-9723
▁턴	-9724
▁때가	-9725
▁직물	-9726
팩트	-9727
▁점심	-9728
▁보호하는	-9729
▁커패시터	-9730
▁측정하였다	-9731
▁글루	-9732
▁돌기	-9733
▁치즈	-9734
▁나가는	-9735
케어	-9736
▁매체를	-9737
▁모두를	-9738
▁수학적	-9739
관으로	-9740
감에	-9741
▁밖의	-9742
▁느낌이	-9743
▁오프셋	-9744
▁가장자리	-9745
▁알고리즘을	-9746
댓글	-9747
티티	-9748
▁미치	-9749
▁횡단	-9750
▁예상되는	-9751
▁56	-9752
▁소성	-9753
▁힐	-9754
으세요	-9755
▁댄	-9756
▁청정	-9757
ip	-9758
▁활동의	-9759
▁과잉	-9760
▁침입	-9761
▁1970	-9762
피해	-9763
▁콜라	-9764
▁구매할	-9765
▁규모를	-9766
▁위기를	-9767
▁전원을	-9768
▁초과하는	-9769
nd	-9770
▁마침	-9771
목으로	-9772
▁얻었다	-9773
▁편이다	-9774
▁밖으로	-9775
▁샘플링	-9776
칙을	-9777
▁식으로	-9778
▁질환을	-9779
▁위원장이	-9780
AT	-9781
혔다	-9782
▁물질이	-9783
드린	-9784
용량	-9785
▁안전하고	-9786
주주	-9787
았지만	-9788
▁∼	-9789
정신	-9790
▁커맨	-9791
▁애니	-9792
▁일에	-9793
▁사망한	-9794
▁그러니까	-9795
▁움직이는	-9796
▁보지	-9797
▁착색	-9798
기관이	-9799
▁비핵화	-9800
▁잎	-9801
았는데	-9802
▁기금	-9803
제품을	-9804
▁배분	-9805
▁전단	-9806
▁에피	-9807
▁v	-9808
▁건물의	-9809
▁스타트업	-9810
▁자료의	-9811
▁시스템과	-9812
▁정상적인	-9813
-4	-9814
▁보니까	-9815
▁심볼	-9816
▁공간으로	-9817
▁일어나는	-9818
▁가요성	-9819
▁두께가	-9820
▁제품과	-9821
LD	-9822
▁예고	-9823
됐다는	-9824
(41)	-9825
크라이나	-9826
▁꿈을	-9827
▁영향은	-9828
▁절차에	-9829
블릿	-9830
▁경유	-9831
▁면접	-9832
▁카드를	-9833
사랑	-9834
▁진보	-9835
▁생기는	-9836
▁표현을	-9837
▁몰드	-9838
▁180	-9839
비전	-9840
▁친구가	-9841
▁특성은	-9842
▁랜덤	-9843
▁상황은	-9844
▁줄어든	-9845
▁효율성을	-9846
▁하류	-9847
포화	-9848
▁알레르기	-9849
말로	-9850
사태	-9851
▁트럭	-9852
▁마그네	-9853
▁블록의	-9854
▁퇴원	-9855
음의	-9856
▁감소를	-9857
▁치과	-9858
▁향하여	-9859
▁아릴	-9860
▁불편을	-9861
▁웨어러블	-9862
사각형	-9863
th	-9864
▁직전	-9865
3%	-9866
▁딜	-9867
▁거시	-9868
▁크기에	-9869
결제	-9870
달을	-9871
▁내용으로	-9872
드리며	-9873
▁주시길	-9874
▁부여하는	-9875
34	-9876
서로	-9877
▁실습	-9878
▁적어	-9879
이렇게	-9880
▁귀하가	-9881
nm	-9882
됨을	-9883
▁중동	-9884
▁측면이	-9885
천여	-9886
▁조직을	-9887
▁환자에	-9888
▁송풍	-9889
▁실장	-9890
▁조사에	-9891
단으로	-9892
키스탄	-9893
▁가장자	-9894
▁노래를	-9895
"",	-9896
▁향하는	-9897
▁장면	-9898
▁드릴게요	-9899
LED	-9900
▁정책은	-9901
▁질문이	-9902
▁상류	-9903
▁소극	-9904
▁식이	-9905
▁연수	-9906
▁전송한다	-9907
▁몰려	-9908
▁유선	-9909
▁안내해	-9910
인인	-9911
▁값에	-9912
▁톤	-9913
▁받아들여	-9914
▁생성되는	-9915
▁스텝	-9916
▁라인을	-9917
▁선정된	-9918
▁낫	-9919
▁뚫	-9920
보니	-9921
천시	-9922
▁스키	-9923
▁교육은	-9924
▁되어야	-9925
▁접근할	-9926
▁끌고	-9927
▁감지할	-9928
▁내렸다	-9929
(600)	-9930
▁물체	-9931
가량	-9932
폰을	-9933
▁객체를	-9934
▁중요합니다	-9935
값에	-9936
▁아스	-9937
사법	-9938
진에	-9939
▁서구	-9940
▁좁은	-9941
소유	-9942
▁질적	-9943
본부는	-9944
31	-9945
▁정교	-9946
▁세트의	-9947
▁위성	-9948
▁클릭	-9949
▁혈당	-9950
색의	-9951
신탁	-9952
▁데려	-9953
▁피고의	-9954
▁위험에	-9955
▁등기	-9956
▁마련해	-9957
▁사출	-9958
▁결정이	-9959
위원장	-9960
▁주의를	-9961
▁샌드	-9962
▁그것의	-9963
▁해결을	-9964
▁카탈로그	-9965
CL	-9966
▁여부는	-9967
하였다는	-9968
병을	-9969
▁대답	-9970
▁편리하게	-9971
▁문화의	-9972
▁손해를	-9973
)-	-9974
▁(3)	-9975
▁유방	-9976
셨나요	-9977
▁중국에	-9978
▁성분의	-9979
복합	-9980
의도	-9981
차별	-9982
▁번에	-9983
▁선회	-9984
일수록	-9985
▁사망자	-9986
▁제공하며	-9987
연히	-9988
▁2001	-9989
▁나라의	-9990
▁활성을	-9991
정부가	-9992
▁구성하고	-9993
BL	-9994
워서	-9995
▁반영한	-9996
▁위원회의	-9997
마자	-9998
역의	-9999
▁했고	-10000
▁양상을	-10001
▁제거할	-10002
▁살펴보았다	-10003
로써	-10004
▁확인을	-10005
플렉	-10006
향이	-10007
▁드려	-10008
▁객체의	-10009
▁사회에서	-10010
▁선제	-10011
▁외부의	-10012
▁몽골	-10013
▁인식할	-10014
▁차량이	-10015
▁지내	-10016
분석을	-10017
스티벌	-10018
▁적용을	-10019
▁곰	-10020
주간	-10021
▁겔	-10022
▁부재에	-10023
기성	-10024
▁고지	-10025
▁드론	-10026
▁가스의	-10027
마스	-10028
▁전의	-10029
▁취득하는	-10030
만원을	-10031
▁다루는	-10032
대응	-10033
▁중요하게	-10034
비게	-10035
▁그만	-10036
▁싶지	-10037
▁단부에	-10038
▁수집된	-10039
디스플레이	-10040
PE	-10041
▁NH	-10042
▁국한	-10043
검사를	-10044
▁법원은	-10045
말을	-10046
▁대거	-10047
▁생산성	-10048
▁절차가	-10049
▁제어부는	-10050
▁용인	-10051
▁해석할	-10052
▁족	-10053
▁전라	-10054
(28)	-10055
▁올해는	-10056
▁어렵게	-10057
▁mg	-10058
▁안경	-10059
구요	-10060
▁네덜	-10061
▁지원에	-10062
▁모임	-10063
▁손에	-10064
▁아무리	-10065
▁프로모	-10066
▁당신과	-10067
▁전체가	-10068
▁피드백을	-10069
기념	-10070
▁성남	-10071
▁경제가	-10072
립을	-10073
▁소설	-10074
▁제작된	-10075
▁엘리먼트	-10076
▁그간	-10077
▁공간에서	-10078
역이	-10079
▁개체	-10080
▁연휴	-10081
▁외무	-10082
신고	-10083
▁파급	-10084
▁개재	-10085
▁활동은	-10086
▁법원의	-10087
박스	-10088
콜릿	-10089
▁가방	-10090
▁결합하는	-10091
▁색깔	-10092
▁양육	-10093
▁도와드릴까요	-10094
팅을	-10095
▁치명	-10096
▁양식	-10097
▁시작하는	-10098
ine	-10099
▁어우러	-10100
▁주민들의	-10101
▁복부	-10102
▁하반기	-10103
▁제공하도록	-10104
te	-10105
▁신흥	-10106
▁파산	-10107
▁상품에	-10108
▁이어졌다	-10109
론적	-10110
▁수단에	-10111
▁댓글	-10112
▁테스트를	-10113
▁유력	-10114
▁아름답	-10115
▁위치할	-10116
우리나라	-10117
장치에	-10118
▁작곡	-10119
▁h	-10120
▁맞지	-10121
율에	-10122
▁암모	-10123
▁미국에	-10124
▁자율주행	-10125
과세	-10126
점이다	-10127
▁예산을	-10128
▁독서	-10129
▁이력	-10130
▁불소	-10131
▁신선한	-10132
▁않았던	-10133
▁접어	-10134
내에서	-10135
▁물가	-10136
▁저기	-10137
▁체인	-10138
메이션	-10139
▁구하는	-10140
▁구청장이	-10141
사진	-10142
▁가끔	-10143
과정에서	-10144
▁무상	-10145
▁은퇴	-10146
▁수단이	-10147
▁압전	-10148
▁소자의	-10149
▁주민의	-10150
▁폴리우레탄	-10151
▁것들이	-10152
마토	-10153
인식	-10154
▁인터뷰에서	-10155
▁체계적인	-10156
▁중시	-10157
행위에	-10158
▁공소외	-10159
99	-10160
▁배가	-10161
▁북한은	-10162
산업의	-10163
▁증가를	-10164
▁캘리포니아	-10165
▁일부에	-10166
등한	-10167
▁지름	-10168
▁대상에	-10169
▁필요하지	-10170
단말	-10171
했는지	-10172
▁사용합니다	-10173
▁1∼	-10174
▁한다면	-10175
▁보입니다	-10176
령을	-10177
▁수산	-10178
▁자영업	-10179
▁않았다고	-10180
▁웰	-10181
▁택배	-10182
▁이루어져야	-10183
▁고전	-10184
▁조화	-10185
▁미안	-10186
▁예전	-10187
▁알리는	-10188
▁모드에서	-10189
▁풍력	-10190
▁히트	-10191
어질	-10192
지역의	-10193
명에서	-10194
▁확대를	-10195
▁안팎	-10196
▁들이	-10197
▁위안	-10198
직을	-10199
▁설치할	-10200
▁저작권	-10201
▁대향하는	-10202
▁중에서도	-10203
▁DM	-10204
▁셀룰로	-10205
▁실시할	-10206
▁압축기	-10207
되었음을	-10208
▁애플리케이션의	-10209
▁해결하는	-10210
▁바닷	-10211
▁볼륨	-10212
▁언니	-10213
▁합동	-10214
(510)	-10215
영이	-10216
▁64	-10217
▁파우	-10218
놓고	-10219
▁마치고	-10220
▁현황을	-10221
세트	-10222
▁유형에	-10223
▁관계에서	-10224
피던	-10225
▁인재	-10226
신용	-10227
프가	-10228
▁같네요	-10229
▁산업에	-10230
▁스토리	-10231
▁요소에	-10232
▁생각할	-10233
▁세포를	-10234
▁특징이	-10235
한데	-10236
▁상자	-10237
▁도메인	-10238
▁여러분의	-10239
▁아르헨	-10240
▁항공기	-10241
-0	-10242
브라	-10243
▁‘20	-10244
▁비중은	-10245
▁수용할	-10246
▁지칭	-10247
▁놀라운	-10248
▁라이트	-10249
▁국제적	-10250
▁만든다	-10251
▁우려를	-10252
포트	-10253
▁적게	-10254
었다는	-10255
▁연구들은	-10256
로도	-10257
▁땀	-10258
▁실행할	-10259
▁잇따라	-10260
▁헤테로	-10261
▁공정에	-10262
▁이해가	-10263
고등학교	-10264
▁직원들이	-10265
재단	-10266
조원	-10267
▁알지	-10268
합니까	-10269
▁밝혀졌다	-10270
▁수신한다	-10271
▁부호화	-10272
▁최상	-10273
▁60%	-10274
▁드는	-10275
▁음의	-10276
▁레벨을	-10277
▁길이가	-10278
▁식품의	-10279
▁분위기가	-10280
합의	-10281
▁조회	-10282
회피	-10283
▁들어오	-10284
se	-10285
로지	-10286
까지도	-10287
공단	-10288
연결	-10289
▁선적	-10290
▁진행한	-10291
회전	-10292
TR	-10293
▁교부	-10294
▁안으로	-10295
▁조합을	-10296
▁오프라인	-10297
▁l	-10298
서비스를	-10299
▁차지했다	-10300
▁맞은	-10301
롭고	-10302
프는	-10303
▁보전	-10304
부동산	-10305
이것은	-10306
▁세그먼	-10307
▁소식이	-10308
▁잠재적	-10309
▁훈련을	-10310
▁예금	-10311
▁계약이	-10312
▁허용되는	-10313
▁났	-10314
았으며	-10315
측정	-10316
▁정식	-10317
항은	-10318
처는	-10319
▁i	-10320
PGA	-10321
▁1.	-10322
▁앞선	-10323
▁편하게	-10324
▁접촉하는	-10325
▁부동산을	-10326
▁불필요한	-10327
▁수득	-10328
▁부유	-10329
▁사로	-10330
▁질을	-10331
▁사건에	-10332
▁봐야	-10333
▁서류를	-10334
▁제한하는	-10335
▁풀이된다	-10336
▁자료는	-10337
▁프레임에	-10338
현이	-10339
▁값으로	-10340
레스테	-10341
▁넘어서	-10342
입력	-10343
▁균열	-10344
▁가전	-10345
▁근거를	-10346
EA	-10347
▁방금	-10348
▁충남	-10349
▁계면활성	-10350
▁기업들의	-10351
32	-10352
▁꺾	-10353
▁캄	-10354
▁외환	-10355
하시나요	-10356
▁매립	-10357
▁높아질	-10358
▁상대적	-10359
▁손으로	-10360
▁신뢰를	-10361
▁판매하고	-10362
정부의	-10363
수사	-10364
▁밀집	-10365
법적	-10366
▁엘리베이터	-10367
조와	-10368
▁생략	-10369
이제	-10370
▁깔끔	-10371
▁미용	-10372
▁실태	-10373
▁아버지	-10374
▁기도	-10375
▁사적	-10376
▁추상	-10377
▁트위	-10378
▁800	-10379
▁병원을	-10380
▁업체가	-10381
▁말단	-10382
▁행하는	-10383
▁충청	-10384
▁개념은	-10385
▁비율로	-10386
▁화학적	-10387
EM	-10388
▁잔여	-10389
▁조금씩	-10390
학자	-10391
▁오토	-10392
비용은	-10393
졌으며	-10394
▁49	-10395
적이지	-10396
▁먹으면	-10397
▁최근의	-10398
▁검토하고	-10399
▁늘어나고	-10400
램핑	-10401
만으로는	-10402
▁스웨덴	-10403
▁내열	-10404
▁미친다	-10405
▁태블릿	-10406
▁곡선	-10407
지난해	-10408
▁그룹에	-10409
▁원활한	-10410
▁시작한다	-10411
▁삼각	-10412
▁액상	-10413
▁팀을	-10414
▁아세안	-10415
서도	-10416
▁클리	-10417
교를	-10418
▁압도	-10419
▁일정이	-10420
▁즐기는	-10421
▁취할	-10422
▁걸리는	-10423
▁완벽하게	-10424
▁형식으로	-10425
▁히터	-10426
회사가	-10427
절을	-10428
▁기쁘	-10429
(110	-10430
다음으로	-10431
▁다이오드	-10432
▁증가에	-10433
▁전체적인	-10434
▁준비하고	-10435
▁출장	-10436
원자	-10437
▁효력	-10438
DR	-10439
▁격자	-10440
▁공직	-10441
▁위험한	-10442
센터에서	-10443
▁고객님의	-10444
생활을	-10445
▁원고가	-10446
▁로마	-10447
▁커질	-10448
▁적절히	-10449
▁부부	-10450
▁착수	-10451
▁사유가	-10452
▁신규한	-10453
▁얻는다	-10454
▁포함하지	-10455
보장	-10456
▁주장하였다	-10457
망이	-10458
▁방정	-10459
▁홈런	-10460
▁사업자	-10461
(70)	-10462
▁화이트	-10463
▁실행하는	-10464
▁커뮤니케이션	-10465
▁크루	-10466
글리	-10467
기간이	-10468
▁지자체	-10469
▁라우	-10470
▁연대	-10471
▁프로세스를	-10472
▁것이기	-10473
▁작업에	-10474
▁부실	-10475
▁수록	-10476
은행은	-10477
▁가려	-10478
▁목숨	-10479
▁완충	-10480
▁항암	-10481
▁맥락에서	-10482
37	-10483
Si	-10484
▁폰	-10485
▁유가	-10486
▁긍정적으로	-10487
▁원칙적으로	-10488
농업	-10489
▁Ti	-10490
▁편리한	-10491
▁인식하는	-10492
▁자의	-10493
▁도널드	-10494
▁전염병	-10495
히고	-10496
종은	-10497
▁순수	-10498
▁마우스	-10499
▁결과이다	-10500
▁기기를	-10501
▁닦	-10502
▁개시되어	-10503
▁판단한다	-10504
PP	-10505
스마트	-10506
▁기침	-10507
▁관계의	-10508
▁요인에	-10509
▁제조하기	-10510
▁공지	-10511
▁위치는	-10512
▁제공되고	-10513
워드	-10514
▁윤리	-10515
▁생산을	-10516
▁주소를	-10517
플루오로	-10518
▁간단하게	-10519
제공	-10520
▁전구	-10521
▁기능과	-10522
▁주목된다	-10523
▁즐겨	-10524
주시는	-10525
▁성과에	-10526
▁그들을	-10527
▁쉘	-10528
▁내연	-10529
▁예후	-10530
▁입금	-10531
▁기재된	-10532
▁현장에	-10533
▁복제	-10534
로서는	-10535
▁돌연변	-10536
▁법원이	-10537
▁변화하는	-10538
▁사운드	-10539
▁충격을	-10540
▁조절하는	-10541
▁유지하면서	-10542
당과	-10543
재해	-10544
▁원의	-10545
▁형성한	-10546
▁이윤	-10547
기관에	-10548
▁대학의	-10549
▁Cu	-10550
▁시정	-10551
▁립	-10552
마지막으로	-10553
▁선두	-10554
▁한화	-10555
▁기분이	-10556
▁인구가	-10557
▁과학적	-10558
▁달라고	-10559
BA	-10560
다시피	-10561
▁시점에서	-10562
▁성능이	-10563
▁예방접	-10564
▁부담으로	-10565
▁전형적인	-10566
▁실외	-10567
▁표지	-10568
▁달러를	-10569
▁펴	-10570
격리	-10571
▁독립적인	-10572
▁우크라이나	-10573
▁분석할	-10574
▁법을	-10575
▁식민	-10576
자료를	-10577
▁공급을	-10578
▁스페이서	-10579
▁중입니다	-10580
▁제외하고는	-10581
▁퓨	-10582
할지	-10583
▁컬렉	-10584
▁초콜릿	-10585
부문	-10586
▁자사	-10587
▁강화하는	-10588
졌을	-10589
▁듯한	-10590
플러스	-10591
▁이후에는	-10592
▁성질	-10593
▁제휴	-10594
▁바늘	-10595
▁버튼을	-10596
▁일본은	-10597
▁훈	-10598
▁불어	-10599
▁줄이	-10600
▁블록을	-10601
▁시설이	-10602
▁신뢰할	-10603
▁상품은	-10604
▁열렸다	-10605
▁제출한	-10606
▁계시	-10607
공무원	-10608
▁승강	-10609
(151)	-10610
만여	-10611
린이	-10612
▁담임	-10613
▁국가는	-10614
▁위치해	-10615
▁강화하고	-10616
▁비싼	-10617
▁인덕	-10618
▁계신	-10619
▁개념이	-10620
▁변호사	-10621
OP	-10622
소자	-10623
▁고조	-10624
▁세월	-10625
▁워드	-10626
프로필	-10627
▁신라	-10628
▁외래	-10629
▁탓에	-10630
청소년	-10631
▁표시를	-10632
▁합병증	-10633
▁부분에서	-10634
▁측에서	-10635
▁그로	-10636
▁쾌적	-10637
▁그에게	-10638
▁수용성	-10639
주식	-10640
▁클록	-10641
▁흔한	-10642
▁수신기	-10643
▁실질적	-10644
▁에어컨	-10645
▁자리에서	-10646
▁잡은	-10647
▁기대를	-10648
▁들어갈	-10649
▁설명하고	-10650
양이	-10651
디지털	-10652
▁중대한	-10653
▁모두에게	-10654
공공	-10655
▁전수	-10656
▁공개된	-10657
▁자료에	-10658
▁행위의	-10659
▁조례는	-10660
▁끊임없이	-10661
동과	-10662
▁CR	-10663
기업이	-10664
▁것인가	-10665
▁주요한	-10666
▁처리가	-10667
▁수행하였다	-10668
▁발생시키는	-10669
▁설명된다	-10670
▁지원하고	-10671
▁실시예들에서	-10672
장인	-10673
▁스핀	-10674
▁슬릿	-10675
▁심화	-10676
▁자체의	-10677
▁있는데요	-10678
론에	-10679
▁고향	-10680
▁대단히	-10681
▁유형을	-10682
▁보건복지	-10683
▁활발하게	-10684
강의	-10685
▁세상을	-10686
▁않았고	-10687
교회	-10688
요소	-10689
▁수석	-10690
▁장관이	-10691
▁상관관계를	-10692
▁중요하다고	-10693
▁믿고	-10694
보수	-10695
▁부총	-10696
시장이	-10697
▁갑상선	-10698
▁나이가	-10699
oc	-10700
여러	-10701
시키며	-10702
▁지지체	-10703
▁늦게	-10704
▁리조	-10705
▁필터를	-10706
편에	-10707
▁견인	-10708
▁데다	-10709
르지	-10710
▁중립	-10711
▁폭행	-10712
악한	-10713
지출	-10714
▁배리어	-10715
▁세계에	-10716
▁0.00	-10717
▁송신하는	-10718
▁추가적으로	-10719
▁시점에	-10720
▁관찰되었다	-10721
폭이	-10722
▁마약	-10723
▁조형	-10724
▁교사가	-10725
▁반면에	-10726
▁동참	-10727
▁밀어	-10728
▁말씀을	-10729
▁품질이	-10730
▁여기는	-10731
▁실시예들에	-10732
▁노출된	-10733
▁기준은	-10734
▁행위는	-10735
하셔야	-10736
▁도구를	-10737
▁동작에	-10738
▁확진자는	-10739
조치	-10740
▁약한	-10741
▁출생	-10742
연구소	-10743
▁단량체	-10744
▁사람과	-10745
▁얘기를	-10746
▁사회주의	-10747
▁파트너십	-10748
드렸습니다	-10749
가치	-10750
변화	-10751
▁동안에	-10752
▁소중한	-10753
▁변속	-10754
주년을	-10755
▁재고가	-10756
▁집단의	-10757
▁취하고	-10758
마를	-10759
▁맞닿	-10760
▁과거의	-10761
▁효율이	-10762
▁근본적인	-10763
▁이미지는	-10764
래요	-10765
▁대행	-10766
▁실망	-10767
▁공급할	-10768
▁용기를	-10769
▁피고가	-10770
▁촉구했다	-10771
▁옹	-10772
골프	-10773
▁남용	-10774
법에서	-10775
▁여성은	-10776
▁획득한	-10777
▁금감	-10778
▁마리	-10779
▁1.0	-10780
▁190	-10781
▁민감한	-10782
▁일어날	-10783
동은	-10784
▁머리를	-10785
▁고발	-10786
▁나오지	-10787
▁조성물이	-10788
▁겉	-10789
▁발의	-10790
▁술을	-10791
▁활용될	-10792
▁감싸	-10793
▁마사	-10794
▁바에	-10795
▁야간	-10796
▁해운	-10797
▁이름으로	-10798
독교	-10799
▁구동부	-10800
▁판매를	-10801
▁y	-10802
▁않아서	-10803
▁필름의	-10804
형과	-10805
▁세분	-10806
▁한미	-10807
▁놀라	-10808
▁부재와	-10809
▁그룹에서	-10810
▁토큰	-10811
▁목적에	-10812
7,	-10813
WHO	-10814
▁1/	-10815
▁갖춰	-10816
년으로	-10817
▁휴식	-10818
▁경제에	-10819
▁계획에	-10820
▁격려	-10821
▁물의	-10822
▁장소에	-10823
▁항목을	-10824
▁혐의를	-10825
▁경감	-10826
▁착탈	-10827
군에서	-10828
▁규정한	-10829
▁박테리아	-10830
커스	-10831
▁국도	-10832
유치	-10833
▁바퀴	-10834
▁세계를	-10835
▁뒤로	-10836
▁동해	-10837
▁네이버	-10838
▁61	-10839
▁둘째	-10840
▁조건에서	-10841
▁문서를	-10842
▁벼	-10843
▁데는	-10844
▁원내대표	-10845
개선	-10846
투스	-10847
트릭	-10848
▁탈퇴	-10849
에게도	-10850
▁결과의	-10851
▁하려고	-10852
▁쳐	-10853
▁왕복	-10854
선생님	-10855
▁나타나지	-10856
센터는	-10857
▁가져올	-10858
▁저비용	-10859
소리	-10860
문학	-10861
▁다룬	-10862
▁여유	-10863
▁것이란	-10864
렸을	-10865
파가	-10866
▁나설	-10867
▁블레이	-10868
▁렌더링	-10869
▁문제점이	-10870
▁축방향	-10871
▁산불	-10872
(33)	-10873
▁검사가	-10874
▁상대방	-10875
▁인간이	-10876
▁아니냐는	-10877
▁건의	-10878
장애인	-10879
▁일치하는	-10880
▁법규	-10881
▁캠페	-10882
▁경쟁을	-10883
▁기술로	-10884
(114)	-10885
▁출력되는	-10886
▁Table	-10887
▁오차	-10888
▁프레젠	-10889
95	-10890
▁피의	-10891
▁회생	-10892
▁생태계	-10893
▁중점을	-10894
▁별도	-10895
실제로	-10896
▁탄소수	-10897
▁목소리를	-10898
▁설정하고	-10899
▁인정하고	-10900
나게	-10901
현대	-10902
▁부위에	-10903
▁임피던	-10904
암의	-10905
▁Fe	-10906
▁개시된	-10907
▁구성에	-10908
▁만나는	-10909
▁서버는	-10910
▁설계된	-10911
▁행동에	-10912
▁귀사에서	-10913
Pa	-10914
온다	-10915
편이	-10916
▁공작	-10917
▁소련	-10918
▁잠깐	-10919
▁자신들의	-10920
신은	-10921
▁말한	-10922
▁목표는	-10923
밀도	-10924
파이	-10925
평화	-10926
▁감염이	-10927
▁기능성	-10928
LC	-10929
졌던	-10930
▁멘	-10931
▁탄산	-10932
TC	-10933
과도	-10934
색으로	-10935
▁방향이	-10936
▁공시했다	-10937
▁일본에서	-10938
▁윗	-10939
삼성	-10940
▁지리적	-10941
▁표시한다	-10942
익을	-10943
증상	-10944
페닐	-10945
경은	-10946
공학	-10947
▁서양	-10948
▁치료제	-10949
▁시민들이	-10950
-20	-10951
▁조건으로	-10952
▁사로잡	-10953
▁장애를	-10954
▁연구원은	-10955
▁팀은	-10956
▁기반한	-10957
▁예측할	-10958
▁원자력	-10959
▁최적화	-10960
▁스트레스를	-10961
짜리	-10962
줘야	-10963
선언	-10964
▁앵커	-10965
▁굴곡	-10966
▁내면	-10967
▁상반	-10968
시에서	-10969
▁간격으로	-10970
▁포켓	-10971
▁해방	-10972
▁브라우	-10973
▁측정하기	-10974
생명	-10975
통계	-10976
▁공존	-10977
▁윤곽	-10978
▁인자	-10979
▁선진국	-10980
▁장치로서	-10981
▁만료	-10982
▁오직	-10983
▁없다면	-10984
▁제공되며	-10985
고용	-10986
▁아연	-10987
▁작용할	-10988
▁조정하는	-10989
38	-10990
▁가능성에	-10991
▁과목	-10992
▁감성	-10993
▁온난	-10994
▁이슬람	-10995
▁회의에	-10996
-5	-10997
▁제동	-10998
▁허가를	-10999
▁않았다는	-11000
▁모자	-11001
▁패널의	-11002
▁원합니다	-11003
▁반전	-11004
▁해체	-11005
▁접근이	-11006
겠죠	-11007
금과	-11008
▁무조건	-11009
▁소득세	-11010
▁제도는	-11011
▁식별하는	-11012
+)	-11013
▁콤	-11014
스키	-11015
▁뒤를	-11016
터테인	-11017
▁철저히	-11018
▁기대할	-11019
▁라디칼	-11020
▁말까지	-11021
▁젤	-11022
▁무형	-11023
▁리뷰	-11024
▁소변	-11025
▁흥미로운	-11026
▁룸	-11027
▁야채	-11028
▁따른다	-11029
▁아래로	-11030
▁점수가	-11031
소드	-11032
패턴	-11033
▁입장에서는	-11034
탄을	-11035
▁지원한다	-11036
해당	-11037
되었지만	-11038
▁기분	-11039
▁인종	-11040
경제적	-11041
▁도핑	-11042
▁카트	-11043
▁그룹을	-11044
▁미생물	-11045
▁심혈관	-11046
▁타입의	-11047
▁투명한	-11048
’,	-11049
▁내야	-11050
▁변수의	-11051
▁내포	-11052
▁단층	-11053
▁하루에	-11054
집단	-11055
21)	-11056
▁호르몬	-11057
▁게이	-11058
▁음식은	-11059
▁주목을	-11060
▁패턴의	-11061
▁사모	-11062
▁현실을	-11063
▁인정되는	-11064
시장에서	-11065
속에	-11066
▁의회	-11067
▁내다봤다	-11068
▁보고되었다	-11069
▁프린트	-11070
판과	-11071
▁러닝	-11072
복수의	-11073
▁장점을	-11074
비닐	-11075
▁연결부	-11076
ES	-11077
▁작아	-11078
▁대응을	-11079
▁입력되는	-11080
▁입장이다	-11081
▁예방을	-11082
▁내부에서	-11083
▁방식이다	-11084
▁우리나라는	-11085
6%	-11086
고등	-11087
랭킹	-11088
▁경계를	-11089
▁급격한	-11090
▁수치가	-11091
▁시계열	-11092
노드	-11093
▁학생은	-11094
▁사회복지	-11095
▁이로써	-11096
레스테롤	-11097
▁업그레이드	-11098
▁그립	-11099
▁키워드	-11100
4%	-11101
무용	-11102
▁하던	-11103
라인을	-11104
▁갤럭시	-11105
▁구비된	-11106
▁터미널	-11107
원인	-11108
쨌든	-11109
▁연신	-11110
▁점포	-11111
셔널	-11112
▁무려	-11113
▁조사하고	-11114
▁치킨	-11115
방법은	-11116
▁인류	-11117
▁초점	-11118
▁고주파	-11119
▁본인이	-11120
▁처리에	-11121
위원장은	-11122
▁삼성전자	-11123
▁꼼	-11124
권도	-11125
▁강조하는	-11126
▁튼	-11127
▁물질은	-11128
▁가자	-11129
▁실링	-11130
▁알파	-11131
▁크레	-11132
▁규모로	-11133
▁유체를	-11134
보안	-11135
행에	-11136
▁식량	-11137
▁주재	-11138
▁어렵고	-11139
센트	-11140
▁오신	-11141
▁최종적으로	-11142
해양	-11143
개는	-11144
어지고	-11145
졌지만	-11146
해진다	-11147
▁수요를	-11148
▁있는가	-11149
(103)	-11150
▁개봉	-11151
▁와인	-11152
▁과제는	-11153
▁번호를	-11154
▁염두에	-11155
▁스트림을	-11156
▁증가시키는	-11157
분쟁	-11158
▁있으신가요	-11159
체계를	-11160
▁디스플레이를	-11161
아몬	-11162
준비	-11163
터치	-11164
▁결합되어	-11165
▁시작하였다	-11166
매를	-11167
쇼핑	-11168
▁스페	-11169
▁반영하여	-11170
짐을	-11171
▁바가	-11172
▁각국의	-11173
▁상태는	-11174
▁자유한국당	-11175
▁부속	-11176
▁교수가	-11177
▁지방자치단체	-11178
▁걸친	-11179
▁누락	-11180
▁원소	-11181
▁신체적	-11182
▁허용하는	-11183
항이	-11184
▁피험	-11185
▁소지	-11186
▁구성할	-11187
▁델	-11188
▁등재	-11189
▁접목	-11190
심판결	-11191
▁감독의	-11192
▁별다른	-11193
▁시험을	-11194
▁클램핑	-11195
▁계정	-11196
▁화가	-11197
구에서	-11198
▁자녀의	-11199
▁전세계	-11200
▁빌려	-11201
무기	-11202
▁불교	-11203
▁성숙	-11204
▁공기가	-11205
들께	-11206
시장은	-11207
▁수치를	-11208
▁판결을	-11209
(33	-11210
▁in	-11211
시마	-11212
▁두는	-11213
▁항균	-11214
▁고유한	-11215
▁필요는	-11216
▁때문으로	-11217
리라	-11218
▁사립	-11219
▁간편하게	-11220
▁높을	-11221
75	-11222
▁보육	-11223
션이	-11224
▁빈도	-11225
▁붐	-11226
▁빠진	-11227
▁숨진	-11228
▁측정을	-11229
▁보고서는	-11230
재난	-11231
▁환송	-11232
▁일반식	-11233
원칙	-11234
위생	-11235
▁거울	-11236
▁700	-11237
▁템플릿	-11238
▁학생들을	-11239
▁아기	-11240
▁시기를	-11241
▁기능의	-11242
▁원고는	-11243
~5	-11244
▁상영	-11245
▁가족과	-11246
▁자유로운	-11247
중심	-11248
▁매주	-11249
▁열릴	-11250
▁제공하여	-11251
▁파악하기	-11252
관계에	-11253
NG	-11254
장비	-11255
▁배울	-11256
▁IoT	-11257
▁소득이	-11258
법상의	-11259
클레오	-11260
▁비대칭	-11261
▁강아	-11262
▁잦	-11263
▁여쭤	-11264
▁영수	-11265
▁창원	-11266
▁효소	-11267
하셔서	-11268
▁유연한	-11269
▁스테이지	-11270
▁두꺼	-11271
주에서	-11272
해졌다	-11273
▁지진	-11274
지거나	-11275
▁당시의	-11276
▁영상이	-11277
▁진행되었다	-11278
▁워터	-11279
▁참여하고	-11280
▁표기	-11281
▁만족도	-11282
▁이외에도	-11283
▁저장한다	-11284
콕시	-11285
크림	-11286
▁니켈	-11287
▁가져다	-11288
▁전처리	-11289
and	-11290
▁빨간	-11291
▁수중	-11292
▁동의를	-11293
▁제공한	-11294
▁껍	-11295
▁재능	-11296
태평양	-11297
투어	-11298
▁관점	-11299
▁어긋	-11300
인지를	-11301
과거	-11302
률의	-11303
사건	-11304
▁개시의	-11305
▁대상은	-11306
▁방치	-11307
▁붉은	-11308
하십니까	-11309
국적	-11310
22)	-11311
▁시중	-11312
사업의	-11313
▁갈등을	-11314
▁갈등이	-11315
▁저희도	-11316
▁가짜	-11317
▁방위	-11318
▁테두	-11319
▁결합을	-11320
▁도시의	-11321
▁준비해	-11322
▁함량이	-11323
추가	-11324
▁날이	-11325
▁어때	-11326
▁휴가	-11327
▁증가함에	-11328
라가	-11329
▁논의할	-11330
if	-11331
▁발생해	-11332
▁사망자가	-11333
▁이후에도	-11334
▁타깃	-11335
▁집으로	-11336
벤처	-11337
성한	-11338
▁게재	-11339
(202)	-11340
▁광의	-11341
▁연설	-11342
▁시트의	-11343
▁수행되는	-11344
▁없었습니다	-11345
경의	-11346
너무	-11347
밸브	-11348
▁녹음	-11349
▁충북	-11350
▁힌지	-11351
▁기법을	-11352
▁서버에	-11353
▁유량	-11354
하이드	-11355
▁감수	-11356
▁캐시	-11357
▁공유하는	-11358
39	-11359
공업	-11360
▁먼지	-11361
▁명세서에	-11362
▁체납	-11363
▁등이다	-11364
들에게는	-11365
▁각국	-11366
▁이곳에	-11367
▁하나이다	-11368
▁김영	-11369
▁사용되었다	-11370
▁혁명	-11371
▁냉장고	-11372
▁점진	-11373
▁엔지	-11374
산으로	-11375
▁미치고	-11376
▁도덕적	-11377
▁인정한	-11378
80)	-11379
▁창고	-11380
방으로	-11381
▁아무것도	-11382
다란	-11383
▁뭔가	-11384
▁산란	-11385
▁현미	-11386
▁WHO	-11387
▁공중합체	-11388
배우	-11389
▁경구	-11390
분할	-11391
▁개발된	-11392
▁개인적	-11393
▁바꿀	-11394
▁결합될	-11395
▁평가하기	-11396
▁백악	-11397
▁형태가	-11398
▁디자이너	-11399
연한	-11400
제조	-11401
▁그러므로	-11402
▁규율	-11403
▁α	-11404
▁교역	-11405
▁의약	-11406
▁것임을	-11407
▁드러난	-11408
이랑	-11409
적의	-11410
▁회절	-11411
▁보고된	-11412
▁강조하고	-11413
▁않는다면	-11414
▁파악하는	-11415
▁못했습니다	-11416
TF	-11417
▁6,	-11418
▁그릇	-11419
▁세제	-11420
▁아르헨티나	-11421
인간	-11422
▁거에요	-11423
▁식별할	-11424
▁지지를	-11425
렸던	-11426
▁인생	-11427
▁신천지	-11428
▁아이가	-11429
▁증가는	-11430
우기	-11431
저장	-11432
▁작고	-11433
▁밝은	-11434
▁외상	-11435
▁입력이	-11436
▁있어서도	-11437
▁합계	-11438
▁기온이	-11439
▁매출이	-11440
▁비활성	-11441
▁사이를	-11442
▁수행된다	-11443
▁환상	-11444
▁금액이	-11445
▁주었다	-11446
▁합의를	-11447
▁원심판결	-11448
▁조인트	-11449
▁계약에	-11450
▁추진할	-11451
트에서	-11452
▁증가로	-11453
▁대항	-11454
▁네트워크의	-11455
▁미생	-11456
▁특유의	-11457
▁지원하기	-11458
토록	-11459
▁범위는	-11460
▁개발하고	-11461
▁인테리어	-11462
일반적으로	-11463
율로	-11464
▁적고	-11465
▁기기의	-11466
▁갔다	-11467
▁계량	-11468
▁잠실	-11469
▁데이터로	-11470
▁말에	-11471
▁배송이	-11472
▁러시아의	-11473
프의	-11474
▁규제가	-11475
▁움직임이	-11476
▁온라인으로	-11477
▁폴더	-11478
▁이후로	-11479
▁활발히	-11480
MC	-11481
▁이혼	-11482
▁개선이	-11483
ow	-11484
▁140	-11485
▁지방의	-11486
▁알려드립니다	-11487
▁일하고	-11488
▁학교의	-11489
▁클램프	-11490
▁현저히	-11491
▁예시적인	-11492
▁일본이	-11493
보자	-11494
▁오고	-11495
▁깨끗한	-11496
▁이뤄질	-11497
▁포도당	-11498
▁동결	-11499
▁유인	-11500
니까요	-11501
▁배기가	-11502
▁주장은	-11503
▁연관성을	-11504
▁돕기	-11505
▁발진	-11506
▁전압이	-11507
▁환자들은	-11508
▁나란히	-11509
▁나선다	-11510
▁아이돌	-11511
▁양이온	-11512
▁패널을	-11513
비게이션	-11514
값의	-11515
▁민원	-11516
▁밀도	-11517
▁설명해	-11518
▁않을까	-11519
▁설치하는	-11520
▁LA	-11521
▁교회	-11522
▁낮고	-11523
▁비롯하여	-11524
정지	-11525
▁간략	-11526
▁합격	-11527
▁회사와	-11528
▁기다리겠습니다	-11529
▁흙	-11530
설계	-11531
▁작게	-11532
▁설치한	-11533
▁느낀	-11534
▁싫어	-11535
정부는	-11536
▁돌출부	-11537
▁수업에	-11538
▁업무에	-11539
▁여론	-11540
▁차세대	-11541
~4	-11542
효과가	-11543
▁경화성	-11544
▁요인은	-11545
해의	-11546
▁느꼈	-11547
▁동안의	-11548
▁못하게	-11549
▁얻어지는	-11550
▁곁	-11551
▁베네	-11552
▁한글	-11553
▁문화가	-11554
▁의미로	-11555
▁알겠습니다	-11556
▁수단은	-11557
65	-11558
점검	-11559
▁불거	-11560
▁서부	-11561
▁출근	-11562
▁규정된	-11563
▁보내고	-11564
▁된다면	-11565
▁일체로	-11566
~2	-11567
정도	-11568
폐기	-11569
▁간이	-11570
▁내릴	-11571
▁임상적	-11572
▁초기에	-11573
▁옳	-11574
매체	-11575
▁존재를	-11576
▁분석하기	-11577
▁우선적으로	-11578
▁부패	-11579
▁빌딩	-11580
▁축을	-11581
▁추천해	-11582
▁킬	-11583
▁중성	-11584
▁팀의	-11585
거리를	-11586
센터를	-11587
▁수사를	-11588
경에	-11589
연료	-11590
연의	-11591
피아	-11592
▁열려	-11593
▁링크를	-11594
▁어댑	-11595
▁주간	-11596
▁초등학생	-11597
▁엔드	-11598
▁재치	-11599
하였던	-11600
▁경보	-11601
▁과다	-11602
▁기입	-11603
▁관계로	-11604
▁스케일	-11605
▁현상은	-11606
인치	-11607
▁랩	-11608
학이	-11609
▁대피	-11610
▁우편	-11611
▁적합하다	-11612
▁플렉	-11613
폴리오	-11614
▁부직포	-11615
▁제한이	-11616
▁감소한	-11617
▁하고자	-11618
▁몸이	-11619
▁구조와	-11620
▁오목부	-11621
▁분석에서	-11622
▁유도하는	-11623
▁리소스	-11624
▁규정하는	-11625
▁아티스트	-11626
▁일으키는	-11627
▁공업	-11628
이었고	-11629
▁확실한	-11630
(201)	-11631
게도	-11632
타늄	-11633
▁포럼	-11634
▁사랑하는	-11635
프리	-11636
▁가중치	-11637
▁공급이	-11638
(105)	-11639
▁유사하게	-11640
▁장려	-11641
▁폭을	-11642
ov	-11643
▁유망	-11644
▁방문하는	-11645
르코	-11646
염의	-11647
▁산성	-11648
▁잊지	-11649
제도의	-11650
▁노하우	-11651
▁다릅니다	-11652
▁편안하게	-11653
▁이승	-11654
네트워크	-11655
시키면서	-11656
석에	-11657
납니다	-11658
제도를	-11659
회의를	-11660
▁승리를	-11661
▁감압	-11662
(36)	-11663
▁지분율이	-11664
이니	-11665
▁요철	-11666
▁과정의	-11667
▁소재를	-11668
▁넷	-11669
▁유닛의	-11670
청에	-11671
체적	-11672
▁음료를	-11673
얀마	-11674
통화	-11675
▁지목	-11676
▁것이에요	-11677
▁맡은	-11678
병원에서	-11679
학은	-11680
▁신념	-11681
▁고객은	-11682
▁노동자	-11683
▁사용자를	-11684
▁필요해요	-11685
공화	-11686
표가	-11687
▁발간	-11688
▁높다고	-11689
▁작성한	-11690
▁이용하고	-11691
프랑	-11692
▁시에는	-11693
▁재료가	-11694
위원회를	-11695
마켓	-11696
▁빔을	-11697
▁정책과	-11698
▁겹쳐	-11699
▁모의	-11700
▁흡인	-11701
▁개선할	-11702
▁낮았다	-11703
▁올렸다	-11704
▁전략이	-11705
▁활물질	-11706
▁중부	-11707
평한	-11708
▁수혜	-11709
▁소리가	-11710
▁볼트	-11711
▁알아야	-11712
▁이야기가	-11713
▁표현하는	-11714
▁대면	-11715
▁동부	-11716
▁CPU	-11717
▁조영	-11718
▁구현예	-11719
▁화려한	-11720
▁역전	-11721
▁정황	-11722
▁방문할	-11723
▁인구의	-11724
▁효율성	-11725
▁일자리를	-11726
렸고	-11727
▁논문은	-11728
▁아직까지	-11729
▁번의	-11730
▁고품질	-11731
▁디코더	-11732
▁불안정	-11733
▁정신적	-11734
위에서	-11735
▁85	-11736
▁낮다	-11737
▁무죄	-11738
▁선배	-11739
지사가	-11740
▁귀사가	-11741
만으로도	-11742
▁천공	-11743
▁폭넓	-11744
밀하게	-11745
▁고유의	-11746
사용자가	-11747
▁둘러싸고	-11748
▁감면	-11749
▁귀사와	-11750
▁당분간	-11751
▁이곳에서	-11752
박한	-11753
어와	-11754
파트	-11755
▁명세서	-11756
▁부품의	-11757
▁사고로	-11758
▁결합하여	-11759
▁조사하는	-11760
▁감사의	-11761
▁메뉴를	-11762
▁바람이	-11763
▁방지하고	-11764
▁+	-11765
강을	-11766
천히	-11767
캐스트	-11768
▁변경된	-11769
▁인상을	-11770
▁형태에	-11771
감의	-11772
르면	-11773
▁소년	-11774
▁25%	-11775
▁스트랩	-11776
▁있듯이	-11777
▁제작한	-11778
그의	-11779
킨다	-11780
▁돼지	-11781
▁스카	-11782
사례	-11783
▁요구가	-11784
▁이어진	-11785
qu	-11786
유지	-11787
▁사각	-11788
▁검출기	-11789
▁확보하기	-11790
▁약을	-11791
▁균일한	-11792
▁거대	-11793
▁습득	-11794
▁것들을	-11795
▁제주도	-11796
▁종류에	-11797
억원으로	-11798
▁공정에서	-11799
▁이벤트가	-11800
▁지급할	-11801
영리	-11802
보디아	-11803
▁모형의	-11804
▁위치의	-11805
▁천안	-11806
▁층간	-11807
▁FA	-11808
▁컨디	-11809
▁원활하게	-11810
▁속성을	-11811
시장에	-11812
하라는	-11813
▁사정이	-11814
▁전극과	-11815
▁중순	-11816
▁검출부	-11817
▁보면서	-11818
▁위주로	-11819
▁좋겠어요	-11820
▁변수가	-11821
▁북한에	-11822
▁발생하면	-11823
▁강수	-11824
▁수여	-11825
▁변경될	-11826
SO	-11827
▁추산	-11828
▁궁금한	-11829
▁수분을	-11830
▁결정했다	-11831
Hz	-11832
학기	-11833
▁웅	-11834
동기	-11835
염을	-11836
▁어두	-11837
기술을	-11838
▁검찰은	-11839
있습니다	-11840
▁이해하기	-11841
~20	-11842
▁세운	-11843
▁예능	-11844
▁목숨을	-11845
▁성과가	-11846
품에	-11847
▁지체	-11848
▁확보를	-11849
▁주파수를	-11850
▁현실적으로	-11851
▁면을	-11852
▁우즈	-11853
▁인서	-11854
▁생성될	-11855
▁증거가	-11856
▁청구를	-11857
▁결합되는	-11858
당국이	-11859
▁그루	-11860
▁뭐가	-11861
위원은	-11862
▁밝히고	-11863
▁관련해서	-11864
▁함께하는	-11865
더라	-11866
이어야	-11867
▁응답을	-11868
▁초래할	-11869
▁요구하고	-11870
▁지금도	-11871
▁제안한다	-11872
▁막아	-11873
▁멈추	-11874
▁항원	-11875
면에는	-11876
이처럼	-11877
▁있을까	-11878
▁성찰	-11879
▁수천	-11880
▁회로의	-11881
▁몰라	-11882
▁2.5	-11883
▁본원에	-11884
▁싶은데	-11885
▁여행객	-11886
▁패러다	-11887
▁우리를	-11888
▁고정되어	-11889
커버	-11890
▁시키	-11891
▁국가와	-11892
▁보험료	-11893
▁작품이	-11894
수산	-11895
▁균일하게	-11896
▁찬성	-11897
조에서	-11898
▁동작이	-11899
▁주성분	-11900
▁헌법재판	-11901
▁모순	-11902
▁예정된	-11903
▁정서적	-11904
▁판단하고	-11905
씨와	-11906
▁추출할	-11907
TP	-11908
집이	-11909
▁갑작	-11910
▁59	-11911
▁아침에	-11912
▁사시	-11913
▁수광	-11914
▁원본	-11915
정책을	-11916
▁101	-11917
데이터를	-11918
라의	-11919
▁거두	-11920
▁헬스	-11921
주년	-11922
(70	-11923
하나요	-11924
하자는	-11925
(19)	-11926
▁표면은	-11927
임대	-11928
▁정기적으로	-11929
▁시그널	-11930
▁얼굴을	-11931
▁제한을	-11932
▁유물	-11933
▁찾으	-11934
▁피할	-11935
▁해산	-11936
▁검사는	-11937
▁아무도	-11938
▁자회사	-11939
▁수행되었다	-11940
아울러	-11941
▁1960	-11942
▁낯	-11943
진짜	-11944
▁원리	-11945
방안을	-11946
▁있다며	-11947
▁취재	-11948
▁희귀	-11949
▁소프트웨어를	-11950
(26	-11951
▁앞둔	-11952
▁구비될	-11953
▁신호로	-11954
▁기자회견	-11955
▁명에	-11956
▁뭐야	-11957
▁위헌	-11958
▁증가와	-11959
션은	-11960
▁고위험	-11961
▁비로	-11962
▁식각	-11963
▁CEO	-11964
▁자유를	-11965
▁적당한	-11966
▁주제를	-11967
▁원하시는	-11968
~1	-11969
▁,	-11970
▁호응	-11971
▁보내주신	-11972
▁믹	-11973
▁포화	-11974
▁설정한	-11975
▁해당하는지	-11976
률에	-11977
세한	-11978
ive	-11979
▁선반	-11980
▁주가가	-11981
DI	-11982
박물	-11983
풍이	-11984
▁민속	-11985
▁보상을	-11986
구체적으로	-11987
취를	-11988
▁일각	-11989
코리아	-11990
▁분담	-11991
▁심판	-11992
▁이용한다	-11993
▁처음에는	-11994
tr	-11995
역에	-11996
▁지명	-11997
▁징후	-11998
아미노	-11999
▁제공을	-12000
▁인플루엔자	-12001
▁체제를	-12002
▁자동차의	-12003
▁조세회피	-12004
만은	-12005
체제	-12006
0.0	-12007
▁변경을	-12008
▁공조	-12009
▁불리	-12010
▁산책	-12011
▁시너	-12012
용이	-12013
▁해지	-12014
▁보자	-12015
▁자원봉사	-12016
ect	-12017
▁받았고	-12018
▁분석해	-12019
▁압력이	-12020
▁인사를	-12021
(131)	-12022
기획	-12023
액과	-12024
기간을	-12025
▁도착할	-12026
▁의미할	-12027
래도	-12028
res	-12029
▁집권	-12030
(52)	-12031
민족	-12032
▁상측	-12033
▁성실	-12034
▁이뤄진	-12035
▁분석되었다	-12036
값과	-12037
▁법의	-12038
▁국외	-12039
▁설명한	-12040
▁유효한	-12041
▁서울에서	-12042
대구	-12043
▁내리	-12044
▁분말을	-12045
▁잡을	-12046
▁라이너	-12047
▁비판이	-12048
▁체계적으로	-12049
이죠	-12050
▁한인	-12051
▁환율	-12052
▁지난주	-12053
▁58	-12054
▁철거	-12055
▁취지	-12056
봅니다	-12057
▁경험과	-12058
▁중국을	-12059
▁뵙	-12060
▁뒤집	-12061
▁구멍이	-12062
▁메일로	-12063
▁소개했다	-12064
▁생성하도록	-12065
르트	-12066
음식	-12067
▁분노	-12068
▁상정	-12069
▁스킨	-12070
▁개선하기	-12071
▁수행하여	-12072
▁전환을	-12073
자로부터	-12074
▁개념으로	-12075
▁터치스크린	-12076
’(	-12077
▁남미	-12078
▁지금의	-12079
▁공정거래	-12080
버넌	-12081
▁입지	-12082
▁편의를	-12083
▁것이므로	-12084
▁만듭니다	-12085
▁모듈의	-12086
▁코리아	-12087
대리	-12088
▁미중	-12089
▁변수는	-12090
▁세입	-12091
▁종전	-12092
▁준공	-12093
▁경우에만	-12094
▁NO	-12095
▁올랐	-12096
▁폴리펩	-12097
▁발견했다	-12098
활동에	-12099
▁성장에	-12100
▁시행한	-12101
▁발생되는	-12102
▁맞춘	-12103
▁비즈니	-12104
▁장기적인	-12105
▁시스템으로	-12106
▁기법	-12107
류는	-12108
▁오지	-12109
▁창립	-12110
▁무대에	-12111
▁일으킬	-12112
▁혁신을	-12113
마이	-12114
▁소집	-12115
그러면	-12116
▁72	-12117
애하는	-12118
전문가	-12119
▁마련될	-12120
▁성격이	-12121
▁안정성	-12122
▁액체를	-12123
▁조정을	-12124
▁금강	-12125
행위가	-12126
▁않거나	-12127
▁1998	-12128
▁산업혁명	-12129
부채	-12130
▁합쳐	-12131
▁판단에	-12132
위원장이	-12133
▁병원으로	-12134
가장	-12135
데이	-12136
통상	-12137
▁공인	-12138
선형	-12139
▁엑스	-12140
▁클립	-12141
▁치료는	-12142
▁가뭄	-12143
▁분출	-12144
▁시켜	-12145
RP	-12146
▁메틸	-12147
▁뚜렷한	-12148
▁은행의	-12149
▁찾아볼	-12150
▁공개했다	-12151
NH	-12152
권으로	-12153
▁국가대표	-12154
▁살인	-12155
▁환기	-12156
▁식품을	-12157
▁억제제	-12158
▁운영할	-12159
▁이같은	-12160
▁AS	-12161
▁경비	-12162
▁미만인	-12163
▁정의하는	-12164
▁멀티미디어	-12165
▁62	-12166
▁개관	-12167
▁면허	-12168
▁외의	-12169
▁함양	-12170
▁막대한	-12171
▁보일러	-12172
▁프린터	-12173
▁경량	-12174
▁건물을	-12175
▁여름철	-12176
▁조성을	-12177
바지	-12178
토리	-12179
▁가족의	-12180
▁논의는	-12181
▁인버터	-12182
▁있으시	-12183
▁패턴이	-12184
▁숫자	-12185
▁비용의	-12186
▁강좌	-12187
▁언론에	-12188
▁기각한다	-12189
▁잇따	-12190
▁치유	-12191
▁기대가	-12192
▁제거하기	-12193
▁HB	-12194
▁그룹은	-12195
▁단계의	-12196
▁에어로	-12197
▁위원은	-12198
▁복수개의	-12199
▁밭	-12200
천의	-12201
펠러	-12202
화폐	-12203
▁에스	-12204
▁원인은	-12205
-6	-12206
▁더불어민주당	-12207
▁지어	-12208
▁이메일에	-12209
▁약화	-12210
▁하실	-12211
▁의료진	-12212
파의	-12213
▁견적	-12214
▁남동	-12215
▁분무	-12216
▁경제성	-12217
▁신종플루	-12218
33	-12219
▁개를	-12220
▁들어와	-12221
▁콘텐츠가	-12222
구매	-12223
▁구부	-12224
▁불포화	-12225
▁메모리에	-12226
가정	-12227
도상	-12228
하의	-12229
▁CH	-12230
▁나눌	-12231
▁반영된	-12232
▁네트워크에	-12233
해상	-12234
▁간담	-12235
▁뿌리	-12236
▁마을이	-12237
▁무리	-12238
▁타격	-12239
▁경제를	-12240
▁산업이	-12241
▁필수적인	-12242
▁정하고	-12243
▁해석을	-12244
▁환자들의	-12245
▁영입	-12246
▁사회가	-12247
운전	-12248
장도	-12249
▁컸다	-12250
▁160	-12251
▁제안한	-12252
가능하게	-12253
▁열람	-12254
▁연구들이	-12255
봐도	-12256
음은	-12257
▁맡고	-12258
▁분석이다	-12259
년대에	-12260
▁1997	-12261
▁사회를	-12262
밀히	-12263
▁한옥	-12264
▁취약한	-12265
▁카운터	-12266
▁정정	-12267
▁단위의	-12268
▁가능하다는	-12269
▁포트폴리오	-12270
우며	-12271
▁과실	-12272
▁김치	-12273
림이	-12274
▁지침을	-12275
▁상관관계가	-12276
임에도	-12277
▁조사가	-12278
▁한쪽의	-12279
▁디바이스가	-12280
▁관광지	-12281
▁57	-12282
▁비스	-12283
▁클러	-12284
그동안	-12285
센터가	-12286
▁귀사에	-12287
▁시퀀스	-12288
▁짝	-12289
▁모호	-12290
▁벌금	-12291
▁치료의	-12292
민은	-12293
아직	-12294
▁했다는	-12295
증에	-12296
▁마시	-12297
▁물러	-12298
▁절실	-12299
▁치열한	-12300
▁클래식	-12301
과정을	-12302
▁공유할	-12303
ML	-12304
▁제재를	-12305
▁블록도이다	-12306
▁아시안게임	-12307
▁본래	-12308
▁테크	-12309
러시아	-12310
▁손쉽게	-12311
▁않았을	-12312
▁66	-12313
▁강요	-12314
▁도중	-12315
▁화석	-12316
글로벌	-12317
▁선택에	-12318
▁천천히	-12319
▁포함되지	-12320
의무	-12321
▁구매를	-12322
▁샤워	-12323
▁스크롤	-12324
▁거칠	-12325
▁말은	-12326
▁하시는	-12327
▁호전	-12328
▁가졌다	-12329
▁구분할	-12330
▁해킹	-12331
▁되기를	-12332
▁매월	-12333
▁본부	-12334
▁액티브	-12335
▁우승을	-12336
주시길	-12337
▁모두에서	-12338
SK	-12339
경험	-12340
조로	-12341
▁멤브	-12342
▁서울의	-12343
▁연락처	-12344
▁형성을	-12345
▁조사됐다	-12346
▁끌어올	-12347
▁군집	-12348
▁직류	-12349
▁마시고	-12350
▁박사는	-12351
▁실시한다	-12352
소나	-12353
▁로딩	-12354
▁못하였다	-12355
견이	-12356
▁이어진다	-12357
이트를	-12358
▁군에서	-12359
▁고객들이	-12360
▁평행하게	-12361
내지	-12362
시효	-12363
(+)	-12364
▁다각	-12365
▁병합	-12366
▁빨라	-12367
▁포털	-12368
▁엔티티	-12369
▁최소한의	-12370
▁불이익	-12371
▁이유다	-12372
(132)	-12373
▁때문이라고	-12374
그가	-12375
▁내화	-12376
▁번도	-12377
▁요청하는	-12378
LA	-12379
▁튜	-12380
▁높아진	-12381
▁입장이	-12382
▁컨설팅	-12383
▁마련했다	-12384
만간	-12385
해왔	-12386
300	-12387
서블	-12388
▁걱정하지	-12389
직한	-12390
▁지식과	-12391
▁분석한다	-12392
친다	-12393
▁of	-12394
▁진화	-12395
음으로	-12396
해서는	-12397
▁기독교	-12398
▁파기하고	-12399
1%	-12400
분리	-12401
▁근위	-12402
▁셀의	-12403
▁매운	-12404
▁엄마가	-12405
모가	-12406
▁들려	-12407
▁원유	-12408
▁표면이	-12409
▁흐름에	-12410
▁시대를	-12411
▁자체에	-12412
▁접근을	-12413
하러	-12414
▁생리	-12415
▁시원	-12416
▁제게	-12417
구조를	-12418
▁폴리에틸렌	-12419
하길	-12420
(51)	-12421
▁실시예들은	-12422
▁주기적으로	-12423
▁경주	-12424
▁대우	-12425
▁비아	-12426
▁갖도록	-12427
▁과정과	-12428
▁열었다	-12429
▁튼튼	-12430
▁끝까지	-12431
▁달성할	-12432
▁많아서	-12433
▁본인의	-12434
▁산업을	-12435
▁아이를	-12436
▁β	-12437
백을	-12438
분쯤	-12439
▁손실이	-12440
▁감소하고	-12441
▁분리하는	-12442
으신	-12443
▁미네	-12444
항에서	-12445
로구	-12446
분은	-12447
울루	-12448
▁다이아몬	-12449
산시	-12450
표면	-12451
▁농가	-12452
▁브로	-12453
▁장은	-12454
역에서	-12455
▁개구를	-12456
▁고려하지	-12457
키로	-12458
▁시드	-12459
▁투사	-12460
▁않으면서	-12461
▁광전	-12462
▁부사	-12463
▁층에	-12464
▁합법	-12465
▁좋겠다	-12466
▁타인의	-12467
다공	-12468
약이	-12469
유리	-12470
플란	-12471
▁챙겨	-12472
▁브라켓	-12473
▁채널의	-12474
▁효력을	-12475
▁만들었습니다	-12476
▁시달	-12477
▁민주당	-12478
전통	-12479
칫솔	-12480
▁각기	-12481
▁장을	-12482
▁파이	-12483
증후군	-12484
▁향상시킨다	-12485
▁공고	-12486
▁퇴적	-12487
▁정한다	-12488
▁레지스트	-12489
▁일시적으로	-12490
안과	-12491
▁목격	-12492
▁자제	-12493
▁마을의	-12494
팀의	-12495
▁열교환기	-12496
▁장착되어	-12497
▁영토	-12498
킵니다	-12499
련된	-12500
▁애완	-12501
▁단부를	-12502
▁재료에	-12503
▁엠	-12504
그래피	-12505
사업에	-12506
▁금액은	-12507
▁단말은	-12508
▁선택하여	-12509
▁물체의	-12510
▁커다란	-12511
▁애니메이션	-12512
▁그래핀	-12513
▁때보다	-12514
▁배경으로	-12515
▁스튜디오	-12516
느라	-12517
처리를	-12518
▁크기로	-12519
▁위치한다	-12520
▁리브	-12521
티오	-12522
▁압착	-12523
▁함침	-12524
▁설정을	-12525
▁전에는	-12526
▁합의가	-12527
▁제거하고	-12528
FT	-12529
▁고소	-12530
▁실종	-12531
▁키를	-12532
시설의	-12533
▁개통	-12534
▁견고	-12535
▁이수	-12536
여자	-12537
▁개성	-12538
▁고수	-12539
▁정말로	-12540
▁증후군	-12541
생성	-12542
어떤	-12543
▁봐요	-12544
행위의	-12545
▁유발할	-12546
▁이어져	-12547
▁주문하신	-12548
▁부딪	-12549
이면서	-12550
▁개도	-12551
▁앓고	-12552
▁건강과	-12553
▁관리자	-12554
▁락	-12555
▁고추	-12556
연구를	-12557
▁최대의	-12558
▁쫓	-12559
포먼	-12560
▁각자	-12561
▁추세를	-12562
역사	-12563
.""	-12564
▁결핍	-12565
▁너의	-12566
▁묻는	-12567
▁후보가	-12568
▁늘어나는	-12569
스피	-12570
운송	-12571
▁Ni	-12572
▁나면	-12573
▁스위스	-12574
DS	-12575
감으로	-12576
▁인덱스	-12577
▁불과하다	-12578
너스	-12579
▁사건은	-12580
▁집중적으로	-12581
▁매끄	-12582
▁무늬	-12583
▁협정	-12584
▁객관적	-12585
▁배송을	-12586
▁주문이	-12587
▁항공사	-12588
▁덴	-12589
▁걸로	-12590
▁나트륨	-12591
참가	-12592
▁In	-12593
▁제로	-12594
▁조종	-12595
▁음이온	-12596
터리	-12597
▁굽힘	-12598
▁성사	-12599
▁하강	-12600
▁부드럽게	-12601
▁바쁘	-12602
일랜드	-12603
▁지역과	-12604
보건기구	-12605
▁보냅니다	-12606
▁중요성이	-12607
돌이	-12608
좋아	-12609
▁개발과	-12610
▁프로젝트에	-12611
▁쇄	-12612
▁수행한	-12613
▁공유하고	-12614
▁바이러스가	-12615
까지만	-12616
▁불완전	-12617
▁이동통신	-12618
분배	-12619
ph	-12620
▁문턱	-12621
▁평가는	-12622
▁인접하는	-12623
만명	-12624
학에	-12625
▁부재가	-12626
▁제시할	-12627
▁크다는	-12628
등이	-12629
▁헤더	-12630
▁유발하는	-12631
가입	-12632
▁신청서를	-12633
ub	-12634
▁신뢰성	-12635
▁제기되고	-12636
가상	-12637
변환	-12638
시피	-12639
▁다채	-12640
▁법제	-12641
▁원위	-12642
▁아이들의	-12643
ia	-12644
▁지역별	-12645
▁Co	-12646
▁무언	-12647
▁주름	-12648
▁USB	-12649
▁교육적	-12650
▁보여준	-12651
:1	-12652
▁"“	-12653
▁반영하는	-12654
▁기를	-12655
텔레콤	-12656
▁운전자	-12657
나이	-12658
로워	-12659
모리	-12660
▁정합	-12661
옵니다	-12662
▁경기도는	-12663
▁회전하는	-12664
▁소나무	-12665
▁록	-12666
▁네트	-12667
▁로우	-12668
▁읽고	-12669
▁트래픽	-12670
▁씰	-12671
▁어른	-12672
▁좋아합니다	-12673
▁턱	-12674
시적	-12675
▁되었고	-12676
▁언제든	-12677
▁대상자의	-12678
▁좋아해요	-12679
단위	-12680
미는	-12681
▁명령어	-12682
▁의혹을	-12683
▁해외에서	-12684
ist	-12685
▁어르	-12686
▁총리	-12687
▁증가가	-12688
▁1999	-12689
▁그들에게	-12690
▁외곽	-12691
▁당국의	-12692
▁평행한	-12693
▁품질의	-12694
▁증거를	-12695
CN	-12696
▁닮	-12697
▁르	-12698
퍼런스	-12699
▁단위를	-12700
▁성공을	-12701
▁할게요	-12702
▁살펴본다	-12703
▁궁금합니다	-12704
RA	-12705
수엘	-12706
유아	-12707
▁키움	-12708
▁시위	-12709
▁규칙을	-12710
▁침전	-12711
심에서	-12712
▁계획입니다	-12713
▁그날	-12714
▁벤딩	-12715
중이	-12716
▁수질	-12717
▁비행기	-12718
▁행사할	-12719
▁개발하는	-12720
▁면세	-12721
▁출사	-12722
FP	-12723
▁거지	-12724
▁계란	-12725
▁대퇴	-12726
▁둔다	-12727
▁시효	-12728
▁국민이	-12729
▁통계적	-12730
정말	-12731
▁소위	-12732
▁학급	-12733
▁의미에서	-12734
▁살짝	-12735
번호를	-12736
새로운	-12737
▁용량을	-12738
▁유닛에	-12739
▁감지하는	-12740
목에	-12741
▁양념	-12742
▁진흥	-12743
속을	-12744
▁미쳤	-12745
▁인성	-12746
▁방지를	-12747
▁변경하는	-12748
님을	-12749
의사	-12750
▁안착	-12751
▁정립	-12752
▁예측하는	-12753
신문	-12754
짐에	-12755
처벌	-12756
▁증언	-12757
▁체적	-12758
▁기관지	-12759
▁작품은	-12760
▁청구할	-12761
▁재단	-12762
▁치수	-12763
문화재	-12764
▁단백질을	-12765
세와	-12766
주차	-12767
평을	-12768
▁대의	-12769
▁상처	-12770
▁하니	-12771
▁명령에	-12772
▁센서가	-12773
▁활발한	-12774
67	-12775
등기	-12776
패를	-12777
그것은	-12778
▁배우는	-12779
▁낚시	-12780
▁경험한	-12781
▁관광객이	-12782
되던	-12783
▁철회	-12784
▁감소된	-12785
▁피아노	-12786
▁있었으며	-12787
▁관상	-12788
▁미분	-12789
▁여객	-12790
▁흉부	-12791
▁각자의	-12792
▁협조를	-12793
▁의문	-12794
명이다	-12795
▁시설의	-12796
▁효력이	-12797
▁휴식을	-12798
▁제출하여야	-12799
▁나뉘	-12800
▁등산	-12801
▁살해	-12802
▁부분으로	-12803
▁2,000	-12804
됨과	-12805
▁나섰	-12806
▁무서	-12807
▁사슬	-12808
▁후술	-12809
▁세금을	-12810
었기	-12811
▁로스	-12812
설정된	-12813
▁처리하기	-12814
미세	-12815
투표	-12816
▁백화	-12817
▁의장	-12818
민을	-12819
지급	-12820
▁당국	-12821
▁시작해	-12822
진단	-12823
성형	-12824
▁km	-12825
▁아암	-12826
▁찍어	-12827
▁부드럽고	-12828
▁중고	-12829
▁바닥에	-12830
플러	-12831
14)	-12832
▁일일	-12833
▁곳곳에	-12834
▁진행을	-12835
▁코팅된	-12836
▁가입자	-12837
(108)	-12838
▁유일하게	-12839
▁추정되는	-12840
▁친구들과	-12841
▁나타내며	-12842
▁종합적으로	-12843
▁사료된다	-12844
▁응고	-12845
▁이형	-12846
▁되는지	-12847
▁최상의	-12848
▁바라보는	-12849
▁섬유의	-12850
▁브래	-12851
▁합산	-12852
였으며	-12853
▁날씨가	-12854
▁상담을	-12855
▁개선하는	-12856
▁기업들은	-12857
▁상법	-12858
▁수명	-12859
교육에	-12860
▁목적지	-12861
▁진료를	-12862
▁금전	-12863
▁경기에	-12864
▁노동조합	-12865
▁디자인이	-12866
▁만났	-12867
능력을	-12868
▁성공한	-12869
▁연락해	-12870
교과	-12871
▁범주	-12872
▁이태	-12873
▁0.2	-12874
▁대한항공	-12875
자들과	-12876
하네요	-12877
▁거버넌	-12878
▁기계를	-12879
▁구매하고	-12880
▁눌러	-12881
▁필러	-12882
센티브	-12883
아동	-12884
▁시인	-12885
▁알아보	-12886
▁용기의	-12887
▁조작을	-12888
▁문제이다	-12889
면허	-12890
▁도울	-12891
아크릴	-12892
▁중심이	-12893
계층	-12894
▁의지	-12895
▁부문의	-12896
▁감소했다	-12897
▁만족하는	-12898
자형	-12899
▁착오	-12900
▁지점에	-12901
▁최악의	-12902
act	-12903
▁늘려	-12904
▁중점	-12905
▁15%	-12906
퍼레이터	-12907
▁개척	-12908
▁기공	-12909
▁한때	-12910
▁느끼고	-12911
생태	-12912
▁발주	-12913
▁이곳은	-12914
▁김정	-12915
▁소켓	-12916
▁잘라	-12917
▁끝나면	-12918
▁말하고	-12919
▁진행됐다	-12920
▁간세포	-12921
▁공격을	-12922
▁이론을	-12923
▁출력부	-12924
▁감안하면	-12925
▁치료하기	-12926
중소	-12927
관리를	-12928
▁매체에	-12929
▁환경과	-12930
▁사용자로부터	-12931
▁인디	-12932
▁공정은	-12933
당사	-12934
총회	-12935
충전	-12936
호선	-12937
▁수거	-12938
LG	-12939
▁물과	-12940
▁변이	-12941
▁외식	-12942
▁중도	-12943
▁화성	-12944
▁어떨	-12945
▁했어	-12946
▁구성됩니다	-12947
▁예쁘	-12948
▁전극의	-12949
되었으나	-12950
경북	-12951
반을	-12952
▁캄보디아	-12953
▁"4	-12954
▁가정에	-12955
▁철저한	-12956
▁작동하는	-12957
▁몬	-12958
임의	-12959
▁탈출	-12960
▁벌이고	-12961
▁요청한	-12962
▁집계됐다	-12963
수출	-12964
▁극장	-12965
▁믿을	-12966
▁호기	-12967
억원의	-12968
▁기능적	-12969
▁주체가	-12970
살을	-12971
인증	-12972
▁전주	-12973
▁대신에	-12974
▁용기에	-12975
▁운영되고	-12976
옥시	-12977
▁아카	-12978
▁육아	-12979
▁코호	-12980
▁각도를	-12981
▁컨텍스트	-12982
▁장시간	-12983
▁보내드립니다	-12984
▁말하면	-12985
▁탁월한	-12986
▁콘텐츠에	-12987
▁Mn	-12988
▁꼼꼼	-12989
▁부의	-12990
▁환급	-12991
계와	-12992
▁선포	-12993
▁활동과	-12994
공유	-12995
▁세계적	-12996
▁제조에	-12997
방문	-12998
위한	-12999
되기를	-13000
▁결정한	-13001
▁계산할	-13002
▁라이프	-13003
▁대중교통	-13004
▁드렸습니다	-13005
라크	-13006
▁도서관	-13007
▁배우고	-13008
▁요청이	-13009
▁자세를	-13010
▁이용자가	-13011
▁특례	-13012
▁영향력이	-13013
∼4	-13014
▁컷	-13015
▁봤다	-13016
시켜서	-13017
▁비영리	-13018
▁주문하고	-13019
▁내리는	-13020
▁임계값	-13021
회의에서	-13022
타운	-13023
▁옵션을	-13024
놓은	-13025
요양	-13026
ell	-13027
▁7,	-13028
▁교섭	-13029
▁준용	-13030
▁검사의	-13031
▁번째는	-13032
▁방지한다	-13033
▁직사각형	-13034
▁번거	-13035
▁너무나	-13036
▁드디어	-13037
▁개시내용	-13038
▁수직으로	-13039
기만	-13040
혈증	-13041
▁붙어	-13042
러스트	-13043
▁성장할	-13044
▁퍼포먼	-13045
up	-13046
▁≤	-13047
원고	-13048
방에서	-13049
▁조만간	-13050
▁향상시키기	-13051
대전	-13052
▁꼽힌다	-13053
ec	-13054
▁사정	-13055
▁향상에	-13056
▁하나입니다	-13057
▁메이크	-13058
▁법률에	-13059
부로부터	-13060
10,	-13061
인들에게	-13062
▁혁신적인	-13063
▁NC	-13064
▁통치	-13065
▁영상에	-13066
▁시는	-13067
▁통행	-13068
▁색상을	-13069
시한	-13070
실제	-13071
▁뇌졸	-13072
▁모른다	-13073
▁증가한다	-13074
▁반복적으로	-13075
▁발을	-13076
▁GPS	-13077
▁검찰이	-13078
▁회장의	-13079
▁냈	-13080
패스	-13081
▁분석의	-13082
▁존재하고	-13083
▁주시겠어요	-13084
▁읍	-13085
▁채팅	-13086
▁보이며	-13087
▁이른다	-13088
▁근로자의	-13089
▁메커니즘을	-13090
▁장치로부터	-13091
텐트	-13092
▁이렇	-13093
셨으면	-13094
▁같아서	-13095
▁염증성	-13096
▁표면과	-13097
▁검진	-13098
▁무더	-13099
▁법칙	-13100
▁가져오	-13101
▁등장하는	-13102
광의	-13103
▁교실	-13104
▁빠져나	-13105
▁조금만	-13106
▁판단이	-13107
▁적당	-13108
▁안정성이	-13109
있어	-13110
▁반응에	-13111
▁안정된	-13112
▁열전도	-13113
▁나머지는	-13114
▁굿	-13115
령이	-13116
▁메쉬	-13117
▁하측	-13118
▁왔어요	-13119
▁저장하고	-13120
▁확인한다	-13121
뱅킹	-13122
폭을	-13123
▁체온	-13124
달러를	-13125
지역에	-13126
▁떨어뜨	-13127
▁아마존	-13128
시키거나	-13129
600	-13130
▁무사	-13131
했다가	-13132
▁도입된	-13133
▁어린이집	-13134
▁설정하였다	-13135
렬한	-13136
우수	-13137
인천	-13138
▁카본	-13139
▁과거에	-13140
▁발표된	-13141
보네이트	-13142
▁피해자의	-13143
▁소거	-13144
▁적립	-13145
▁주석	-13146
▁미얀마	-13147
▁유체의	-13148
▁이동이	-13149
시스템을	-13150
뉴얼	-13151
▁사육	-13152
▁형벌	-13153
▁환형	-13154
▁개략	-13155
▁디저	-13156
▁재량	-13157
▁전선	-13158
▁연결할	-13159
▁인스턴	-13160
▁차이에	-13161
▁학습자의	-13162
▁표현할	-13163
▁네덜란드	-13164
▁있었다는	-13165
▁평가하고	-13166
▁갯	-13167
음과	-13168
투과	-13169
▁라미	-13170
▁투석	-13171
▁자금이	-13172
▁보고했다	-13173
목표	-13174
▁투쟁	-13175
▁감지된	-13176
▁결정은	-13177
▁와이	-13178
▁치러	-13179
▁길이는	-13180
▁요구할	-13181
▁함유량이	-13182
▁휩	-13183
▁돋보	-13184
병원은	-13185
▁삶에	-13186
▁정면	-13187
▁없는데	-13188
▁수락	-13189
▁일괄	-13190
이라서	-13191
▁그렇기	-13192
▁연속적인	-13193
▁엿	-13194
▁오면	-13195
▁읽을	-13196
▁좌석	-13197
▁코스닥	-13198
▁수준이다	-13199
▁페스티벌	-13200
▁인터넷을	-13201
교류	-13202
▁주문에	-13203
▁시민들의	-13204
▁넓게	-13205
▁잠정	-13206
▁서울에	-13207
▁아니었다	-13208
▁태양전지	-13209
▁해석된다	-13210
▁자연스러운	-13211
가구	-13212
▁보호할	-13213
▁생명을	-13214
▁도파	-13215
▁수에	-13216
▁애초	-13217
▁유동성	-13218
▁지능형	-13219
▁모습으로	-13220
▁유료	-13221
▁많을	-13222
▁분비	-13223
▁생일	-13224
▁상세한	-13225
og	-13226
이도	-13227
▁비서	-13228
▁양적	-13229
에이블	-13230
▁반응기	-13231
▁시민의	-13232
셨습니다	-13233
▁시행하고	-13234
벽을	-13235
▁한마	-13236
▁온도로	-13237
하셨습니다	-13238
▁건데	-13239
▁이종	-13240
▁III	-13241
되었는데	-13242
▁연구결과	-13243
개에	-13244
▁지형	-13245
▁102	-13246
▁약속을	-13247
▁핀테크	-13248
▁쏘	-13249
수업	-13250
▁오븐	-13251
▁중소기업의	-13252
락이	-13253
아제	-13254
▁생애	-13255
▁친절	-13256
▁모양을	-13257
▁제어에	-13258
▁사용됩니다	-13259
공제	-13260
▁드문	-13261
▁부양	-13262
▁장점	-13263
▁가까워	-13264
방역	-13265
저를	-13266
▁컬럼	-13267
▁가치는	-13268
▁대표적	-13269
▁공급하고	-13270
▁들어갔다	-13271
▁금연	-13272
▁뉴럴	-13273
되어서	-13274
▁깜짝	-13275
▁북서	-13276
▁여수	-13277
▁국가를	-13278
▁유치원	-13279
▁투자에	-13280
▁사진이	-13281
▁최우선	-13282
▁흐름이	-13283
ha	-13284
각이	-13285
▁출자	-13286
▁의도를	-13287
▁제기한	-13288
들인	-13289
시트	-13290
▁EC	-13291
▁노사	-13292
▁반응성	-13293
▁본체에	-13294
▁조건은	-13295
VR	-13296
데스	-13297
▁증류	-13298
디자인	-13299
▁구성은	-13300
▁백신을	-13301
▁고분	-13302
▁규소	-13303
▁무장	-13304
▁온수	-13305
▁중화	-13306
▁대상자	-13307
▁도모할	-13308
(520)	-13309
▁하우징의	-13310
▁UN	-13311
▁더블	-13312
▁테니	-13313
▁투약	-13314
▁발전과	-13315
▁크로스	-13316
▁1995	-13317
▁돌입	-13318
▁직관	-13319
▁겨울철	-13320
▁다음날	-13321
▁동물의	-13322
▁아들이	-13323
▁이집트	-13324
▁대량으로	-13325
▁칫솔	-13326
▁가구의	-13327
∼5	-13328
▁국어	-13329
▁고정하는	-13330
바다	-13331
▁함을	-13332
▁타격을	-13333
▁개인적인	-13334
▁수행하도록	-13335
▁유죄	-13336
▁피사	-13337
소프트	-13338
▁메르스	-13339
▁전문가들이	-13340
▁알리	-13341
▁간단히	-13342
▁순서로	-13343
▁지점을	-13344
▁활용하고	-13345
비용을	-13346
▁도입을	-13347
▁변화로	-13348
회장	-13349
▁이정	-13350
▁남북한	-13351
▁더욱이	-13352
▁콘서트	-13353
▁시행하였다	-13354
무선	-13355
▁몰아	-13356
(120	-13357
▁날짜를	-13358
▁다행히	-13359
▁인센티브	-13360
▁살펴보고자	-13361
▁새끼	-13362
변경	-13363
▁나쁘	-13364
▁정답	-13365
▁포르	-13366
▁부르는	-13367
▁비판했다	-13368
▁페이지를	-13369
▁위함	-13370
갑니다	-13371
(35)	-13372
▁베스트	-13373
(430)	-13374
▁내측에	-13375
▁온도에	-13376
▁요청했다	-13377
▁감쇠	-13378
▁모범	-13379
▁희석	-13380
▁발생된	-13381
▁불가능하다	-13382
▁이질	-13383
▁처한	-13384
▁서비스와	-13385
치기	-13386
▁95	-13387
▁말라	-13388
단에서	-13389
▁특별관계	-13390
결국	-13391
13)	-13392
TT	-13393
시스	-13394
▁부지	-13395
▁0.3	-13396
▁일회용	-13397
▁자격을	-13398
▁적극적	-13399
시아네이트	-13400
부분의	-13401
▁안타깝	-13402
▁증가된	-13403
▁평가에	-13404
▁방향에서	-13405
▁대가	-13406
▁청약	-13407
▁획기	-13408
▁논문에서는	-13409
달아	-13410
트랙	-13411
▁스윙	-13412
▁승무	-13413
▁한해	-13414
았다는	-13415
▁검토할	-13416
▁강성	-13417
▁공학	-13418
▁유대	-13419
별로는	-13420
▁기대합니다	-13421
▁애플리케이션에	-13422
▁춤을	-13423
볼루션	-13424
▁단체의	-13425
▁관리하고	-13426
SI	-13427
타이	-13428
▁개선에	-13429
▁선택적	-13430
▁즐겁게	-13431
▁트랜잭	-13432
▁있었으나	-13433
▁기원합니다	-13434
▁소개합니다	-13435
놨다	-13436
▁개수	-13437
▁지갑	-13438
▁공간은	-13439
▁재산을	-13440
▁포함합니다	-13441
프린	-13442
▁위배	-13443
호선이	-13444
▁오류가	-13445
▁이용이	-13446
▁질병의	-13447
▁팬들이	-13448
▁회로에	-13449
ess	-13450
▁두어	-13451
▁바르	-13452
▁생생	-13453
▁형평	-13454
▁촬영된	-13455
▁받았다고	-13456
▁소요되는	-13457
▁이미지와	-13458
800	-13459
▁구형	-13460
▁대비해	-13461
▁깎	-13462
▁일할	-13463
▁면적이	-13464
▁임상시험	-13465
▁도민	-13466
시켜야	-13467
됐습니다	-13468
▁동영상을	-13469
▁변환하는	-13470
▁2-	-13471
▁놓은	-13472
▁승계	-13473
▁침착	-13474
▁플립	-13475
▁보장하는	-13476
▁여기에는	-13477
▁의사결정	-13478
연성	-13479
▁특징입니다	-13480
▁종업	-13481
▁연장된	-13482
▁종류가	-13483
▁혜택이	-13484
▁믿습니다	-13485
▁선택하고	-13486
▁제시했다	-13487
레드	-13488
▁누출	-13489
▁°	-13490
득이	-13491
카르타	-13492
▁예술가	-13493
▁움직일	-13494
▁경고했다	-13495
▁사람들과	-13496
▁신뢰성을	-13497
하자면	-13498
▁상태와	-13499
▁선택이	-13500
위원회에	-13501
OH	-13502
웠던	-13503
▁국악	-13504
스트라	-13505
포럼	-13506
처분을	-13507
▁아니며	-13508
▁도입하는	-13509
▁장착되는	-13510
▁장기적으로	-13511
글로	-13512
▁항의	-13513
▁경질	-13514
▁나름	-13515
▁한진	-13516
액으로	-13517
▁자신에게	-13518
▁형성하도록	-13519
▁갈아	-13520
▁대조군	-13521
▁원자를	-13522
▁소개하고	-13523
▁처음부터	-13524
▁쉴	-13525
해져	-13526
▁박사	-13527
▁설탕	-13528
▁인원	-13529
▁하신	-13530
▁가지로	-13531
▁군사적	-13532
▁방사성	-13533
▁의도에	-13534
▁5000	-13535
일으	-13536
▁실현할	-13537
▁심사를	-13538
▁체험을	-13539
▁마련된다	-13540
▁AC	-13541
▁갖지	-13542
▁사장	-13543
들보다	-13544
▁렌즈를	-13545
▁변동했다고	-13546
▁콜레스테롤	-13547
▁기쁨	-13548
▁만곡	-13549
▁신의	-13550
▁워낙	-13551
산에서	-13552
▁본체부	-13553
▁부합하는	-13554
▁동기화	-13555
▁정보로	-13556
▁진출을	-13557
아프리카	-13558
▁래치	-13559
▁좋게	-13560
▁여부와	-13561
▁비교하는	-13562
▁지역주민	-13563
RD	-13564
▁사실에	-13565
▁둘러싸는	-13566
개정	-13567
▁침대	-13568
▁영업이익	-13569
본다	-13570
▁사야	-13571
거리가	-13572
▁적용이	-13573
ass	-13574
▁표명	-13575
▁한일	-13576
▁자산을	-13577
▁생각하지	-13578
ib	-13579
▁고립	-13580
▁내놓은	-13581
▁미끄럼	-13582
▁재사용	-13583
▁통과한	-13584
▁골격	-13585
▁픽업	-13586
▁조직에	-13587
▁중심에	-13588
▁도광	-13589
▁발령	-13590
▁비전	-13591
▁이러	-13592
▁힘입	-13593
▁미사일	-13594
▁웹사이트를	-13595
FI	-13596
▁고안	-13597
▁막는	-13598
▁작품의	-13599
▁크루즈	-13600
▁수용하기	-13601
협정	-13602
종으로	-13603
노이	-13604
반의	-13605
▁싱크	-13606
▁설치해	-13607
▁판단한	-13608
▁윌	-13609
▁잭	-13610
▁흰색	-13611
▁기관에	-13612
▁브리핑	-13613
▁심의를	-13614
실시예에	-13615
▁비교하면	-13616
▁우호	-13617
▁장이	-13618
성이나	-13619
▁임플란	-13620
▁환자들이	-13621
▁급수	-13622
경화성	-13623
님께서	-13624
▁마련할	-13625
▁가중치를	-13626
▁소유권이	-13627
▁농민	-13628
▁수증	-13629
▁안쪽	-13630
▁계수를	-13631
▁싶어서	-13632
융합	-13633
▁모은	-13634
▁강남구	-13635
▁보다는	-13636
▁종일	-13637
▁주머니	-13638
▁희망하는	-13639
▁스테로이드	-13640
▁까다	-13641
▁실물	-13642
▁하세요	-13643
▁양해	-13644
▁설치된다	-13645
▁스프레이	-13646
▁아니한다	-13647
▁얼마인가요	-13648
48	-13649
면역	-13650
▁텐데	-13651
▁공개한	-13652
▁벨기에	-13653
▁아동의	-13654
▁확정된	-13655
검토	-13656
단부	-13657
▁벗어	-13658
▁주저	-13659
▁의혹이	-13660
▁판단했다	-13661
질병	-13662
▁값의	-13663
▁방과후	-13664
▁접촉을	-13665
▁그룹으로	-13666
▁전문적인	-13667
▁부식	-13668
▁최다	-13669
▁괜찮은	-13670
▁자원의	-13671
▁산출하는	-13672
글쎄	-13673
머리	-13674
▁나눈	-13675
▁이면	-13676
▁파는	-13677
▁계산하는	-13678
▁없으므로	-13679
▁주식회사	-13680
▁제안했다	-13681
▁감소하였다	-13682
라리	-13683
운이	-13684
▁리스트를	-13685
꺼이	-13686
당에	-13687
▁시선을	-13688
▁호텔에서	-13689
팀을	-13690
▁양수	-13691
▁철강	-13692
▁패소	-13693
▁불만을	-13694
▁크다고	-13695
이라면서	-13696
억원이	-13697
▁조직이	-13698
▁위원회는	-13699
서울특별시	-13700
▁줌	-13701
▁위장	-13702
▁받으면	-13703
▁용이한	-13704
▁높아지는	-13705
▁흐름도이다	-13706
▁외관	-13707
▁정형	-13708
▁후기	-13709
▁자리가	-13710
▁적층된	-13711
▁하부에	-13712
▁부족하다	-13713
▁선수들의	-13714
▁퀴	-13715
▁완료된	-13716
(700)	-13717
▁간과	-13718
▁감자	-13719
▁조류	-13720
▁제작되었습니다	-13721
▁질서	-13722
사들은	-13723
▁경험할	-13724
▁다루고	-13725
▁성명을	-13726
▁전구체	-13727
반도체	-13728
연도	-13729
▁해가	-13730
▁해보	-13731
▁해당한다고	-13732
▁차기	-13733
▁분야를	-13734
▁국회의원	-13735
▁정상적으로	-13736
▁용어	-13737
▁필기	-13738
계에서	-13739
▁법인의	-13740
▁의미는	-13741
▁고속도로	-13742
▁지역에서는	-13743
소방	-13744
▁감염을	-13745
▁협상이	-13746
손해	-13747
인력	-13748
▁PE	-13749
▁달한다	-13750
▁케이크	-13751
▁얽	-13752
주요	-13753
▁승용	-13754
▁어시	-13755
▁공기의	-13756
▁구현할	-13757
▁발생이	-13758
▁설립된	-13759
행의	-13760
▁감당	-13761
렸어요	-13762
▁부당한	-13763
▁서서히	-13764
적이라는	-13765
주시겠어요	-13766
부품	-13767
▁유감	-13768
개월간	-13769
▁브렉시	-13770
▁산업은	-13771
하기에는	-13772
▁부동산에	-13773
▁굵	-13774
▁골목	-13775
▁내수	-13776
기간에	-13777
사이클	-13778
협의회	-13779
▁원자로	-13780
▁중앙에	-13781
되었는지	-13782
적이라고	-13783
정상회담	-13784
▁작성하여	-13785
▁증가시킬	-13786
▁디자인으로	-13787
▁떠난	-13788
▁금융감독	-13789
압을	-13790
통이	-13791
▁냈다	-13792
▁마모	-13793
▁신입	-13794
▁엘라	-13795
▁저수	-13796
▁총회	-13797
▁결합된다	-13798
9%	-13799
▁송출	-13800
루션을	-13801
정책의	-13802
▁자녀가	-13803
▁양산	-13804
▁전위	-13805
▁질화	-13806
되지는	-13807
▁레이더	-13808
▁부모의	-13809
▁일본에	-13810
▁키보드	-13811
▁마련하고	-13812
▁불러일으	-13813
▁신용카드	-13814
검찰	-13815
리다	-13816
▁2%	-13817
▁관형	-13818
▁보게	-13819
▁신인	-13820
▁정권	-13821
▁기판과	-13822
▁나한테	-13823
(80	-13824
▁식별된	-13825
▁참여가	-13826
▁신고를	-13827
▁피고는	-13828
▁화장실	-13829
▁밀려	-13830
▁봉지	-13831
법원에	-13832
▁양질의	-13833
▁학교를	-13834
▁SW	-13835
▁개가	-13836
▁제조업체	-13837
▁무렵	-13838
▁방을	-13839
▁생선	-13840
▁보여줄	-13841
▁연료를	-13842
과제	-13843
▁강판	-13844
▁기뻐	-13845
▁뉴런	-13846
▁열대	-13847
▁냄새가	-13848
▁총리가	-13849
동강	-13850
당에서	-13851
▁구입할	-13852
▁오스트	-13853
▁소상공인	-13854
▁보고하였다	-13855
(29	-13856
하시길	-13857
▁2022	-13858
▁아무래도	-13859
항제	-13860
▁포유	-13861
부르크	-13862
건은	-13863
에게서	-13864
주의에	-13865
▁함유된	-13866
▁보내주세요	-13867
▁굳이	-13868
▁씨의	-13869
▁연봉	-13870
▁미끄러	-13871
▁상황과	-13872
거를	-13873
▁가치와	-13874
▁기꺼이	-13875
▁기사를	-13876
▁성폭력	-13877
▁영업을	-13878
▁형태는	-13879
▁2021	-13880
▁=	-13881
보상	-13882
▁판단하였다	-13883
교실	-13884
랑이	-13885
종양	-13886
▁고맙	-13887
▁단편	-13888
▁죽은	-13889
▁체감	-13890
(190)	-13891
근무	-13892
티아	-13893
시장을	-13894
▁계산된	-13895
▁공정한	-13896
▁학생을	-13897
▁간접적으로	-13898
▁환영합니다	-13899
▁차례로	-13900
▁68	-13901
▁너희	-13902
▁선명	-13903
▁층이	-13904
▁거래에	-13905
용을	-13906
▁안면	-13907
계약의	-13908
▁크기와	-13909
신한	-13910
▁영광	-13911
▁주축	-13912
▁사업으로	-13913
구니	-13914
▁기포	-13915
▁날아	-13916
▁자라	-13917
▁못했던	-13918
▁동일하다	-13919
LP	-13920
▁맥주	-13921
▁문제점	-13922
▁역할에	-13923
▁전문의	-13924
▁비용으로	-13925
ase	-13926
▁침지	-13927
▁올리는	-13928
▁전극은	-13929
▁효과와	-13930
▁주장하고	-13931
▁꺼내	-13932
▁어쩔	-13933
▁일주	-13934
▁종결	-13935
▁고통을	-13936
▁들어갔	-13937
▁당사자가	-13938
0.	-13939
취득	-13940
▁걸리	-13941
▁벡터를	-13942
▁없음을	-13943
▁학습에	-13944
▁공용	-13945
▁이기	-13946
비디오	-13947
▁수준과	-13948
▁원으로	-13949
▁해석이	-13950
창을	-13951
▁원하지	-13952
▁장애가	-13953
▁몫	-13954
터와	-13955
▁항산화	-13956
(340)	-13957
▁성분으로	-13958
▁과태	-13959
▁가치에	-13960
▁원칙으로	-13961
친구	-13962
▁수업이	-13963
▁의의가	-13964
▁현장을	-13965
·4	-13966
대기	-13967
철도	-13968
▁월드	-13969
▁입출력	-13970
▁해주는	-13971
▁크리스마스	-13972
죄송	-13973
▁가축	-13974
▁서해	-13975
▁하죠	-13976
했음을	-13977
▁KIA	-13978
▁기억이	-13979
▁문화와	-13980
▁소비를	-13981
연속	-13982
주얼	-13983
▁설명이	-13984
센터의	-13985
▁의사결	-13986
▁생성된다	-13987
업자	-13988
▁전계	-13989
▁기간의	-13990
▁애노드	-13991
▁확인이	-13992
눈에	-13993
▁대선	-13994
▁수지의	-13995
▁직원을	-13996
적이었다	-13997
▁해당하지	-13998
대역	-13999
▁부를	-14000
▁중견	-14001
▁단점이	-14002
▁특수한	-14003
시죠	-14004
▁말로	-14005
▁접촉한	-14006
지표	-14007
▁비자	-14008
▁나라에서	-14009
▁5,000	-14010
av	-14011
간접	-14012
▁Cr	-14013
▁UV	-14014
▁다발	-14015
▁모방	-14016
▁탈착	-14017
(44)	-14018
▁감광성	-14019
▁농산물	-14020
▁모두에	-14021
▁안전성	-14022
▁저하를	-14023
예산	-14024
출산	-14025
▁상시	-14026
▁수신되는	-14027
▁전문가가	-14028
▁접속되는	-14029
개와	-14030
이식	-14031
행동	-14032
▁IL	-14033
▁아민	-14034
▁진행했다	-14035
▁확보하고	-14036
PI	-14037
RL	-14038
배가	-14039
불이	-14040
▁가습	-14041
라이스	-14042
장관은	-14043
▁공연은	-14044
▁담당자	-14045
▁직원의	-14046
으신가요	-14047
▁마련하는	-14048
▁대결	-14049
▁미군	-14050
▁반박	-14051
▁세트는	-14052
▁엘리먼	-14053
▁저항을	-14054
단계로	-14055
▁동작은	-14056
▁성장과	-14057
▁지분을	-14058
▁가정에서	-14059
▁플렉서블	-14060
개념	-14061
▁안동	-14062
한국의	-14063
▁자가격리	-14064
▁가지게	-14065
▁솔직히	-14066
▁주류	-14067
▁진실	-14068
▁별개의	-14069
▁성질을	-14070
▁공급하기	-14071
▁무엇입니까	-14072
▁우리나라에서	-14073
▁유한	-14074
▁진지	-14075
▁부위를	-14076
▁판매가	-14077
▁해마다	-14078
▁베네수엘	-14079
▁핵산	-14080
▁후크	-14081
문화를	-14082
▁용도로	-14083
▁여러분이	-14084
▁정체성을	-14085
▁무력	-14086
▁실수	-14087
▁파란	-14088
사들의	-14089
신청을	-14090
이상의	-14091
▁금리가	-14092
▁마을을	-14093
▁물품의	-14094
▁주관하는	-14095
▁다르지	-14096
▁개구부를	-14097
▁확대되고	-14098
▁차로	-14099
▁표출	-14100
병원에	-14101
▁손잡이	-14102
▁요소와	-14103
▁이상은	-14104
▁샴	-14105
고도	-14106
▁당한	-14107
사항이	-14108
안으로	-14109
화된다	-14110
▁단독으로	-14111
▁염료	-14112
▁지났	-14113
처분의	-14114
▁준비한	-14115
▁국가들의	-14116
▁63	-14117
▁길이의	-14118
▁입자가	-14119
차와	-14120
▁규정의	-14121
▁기록하고	-14122
▁이상적인	-14123
▁고구	-14124
▁상하이	-14125
▁그릴	-14126
▁수시로	-14127
▁언어를	-14128
▁처분을	-14129
▁구성하였다	-14130
조약	-14131
협상	-14132
▁부천	-14133
▁부활	-14134
(80)	-14135
분류	-14136
▁버섯	-14137
▁성장이	-14138
▁국토교통	-14139
▁마그네슘	-14140
MR	-14141
▁가속도	-14142
▁바람에	-14143
▁이점을	-14144
▁아미노산	-14145
▁머무	-14146
▁탈수	-14147
▁함수를	-14148
정보통신	-14149
▁잠재적인	-14150
억제	-14151
▁연평균	-14152
▁이미징	-14153
▁짙	-14154
제작	-14155
▁고기를	-14156
▁저한테	-14157
2),	-14158
~10	-14159
회사에	-14160
▁동작할	-14161
▁모터의	-14162
▁자리잡	-14163
▁캐소드	-14164
복실산	-14165
▁의지가	-14166
▁지도를	-14167
▁단말기의	-14168
CV	-14169
산지	-14170
▁쓰러	-14171
▁페르	-14172
▁조화를	-14173
(610)	-14174
▁지점에서	-14175
늦게	-14176
est	-14177
▁줄을	-14178
▁센서에	-14179
구동	-14180
▁고착	-14181
▁일측	-14182
▁행태	-14183
▁권리가	-14184
▁문화에	-14185
▁신재생	-14186
▁반대하는	-14187
▁깃	-14188
책이	-14189
▁서민	-14190
▁안고	-14191
▁설치될	-14192
▁알킬기	-14193
Al	-14194
▁반도	-14195
▁부호	-14196
▁감소할	-14197
▁무작위	-14198
▁성적을	-14199
(115)	-14200
▁충분하지	-14201
▁자립	-14202
▁전인	-14203
▁근거리	-14204
▁전면에	-14205
로와	-14206
▁오피스	-14207
▁있었기	-14208
▁대응하기	-14209
▁수신하여	-14210
이닝	-14211
▁지그	-14212
▁블록에	-14213
▁인력을	-14214
▁전력이	-14215
▁중국인	-14216
(113)	-14217
조달	-14218
▁극히	-14219
▁장례	-14220
▁카메	-14221
▁발견할	-14222
▁조기에	-14223
▁변동이	-14224
▁시스템들	-14225
▁서울대	-14226
▁공개한다	-14227
▁디젤	-14228
▁성폭	-14229
▁아나	-14230
▁추락	-14231
▁면적을	-14232
▁할당된	-14233
▁벽에	-14234
▁오해	-14235
▁중대	-14236
▁답했다	-14237
드리는	-14238
▁플래시	-14239
웠습니다	-14240
됐을	-14241
ore	-14242
▁넘겨	-14243
냐고	-14244
▁아이들을	-14245
▁불확실성이	-14246
▁발화	-14247
▁송신할	-14248
▁마련한다	-14249
실록	-14250
인구	-14251
▁청각	-14252
▁증폭기	-14253
▁체결한	-14254
▁국제사회	-14255
▁끝내	-14256
시설이	-14257
▁국내에	-14258
▁있었을	-14259
▁자동화	-14260
▁완료되면	-14261
▁감사드리며	-14262
트넘	-14263
▁칼로	-14264
▁두께는	-14265
▁신호들을	-14266
사유	-14267
▁강화할	-14268
▁미국을	-14269
▁사유로	-14270
OR	-14271
▁짐작	-14272
▁집이	-14273
러스를	-14274
▁실행되는	-14275
▁한국으로	-14276
저가	-14277
▁타일	-14278
해야만	-14279
▁자카르타	-14280
▁맺고	-14281
▁북동	-14282
▁나누고	-14283
▁비판을	-14284
▁일어났	-14285
▁그렇지만	-14286
▁개인적으로	-14287
▁적용해	-14288
▁담당하고	-14289
pl	-14290
규정	-14291
▁가량	-14292
▁나눔	-14293
▁내성	-14294
▁시카	-14295
이미드	-14296
자와의	-14297
사용자는	-14298
▁배치하고	-14299
▁인가되는	-14300
개시	-14301
▁노르	-14302
▁메탈	-14303
▁암시	-14304
▁정원	-14305
라이브	-14306
▁모델로	-14307
▁제공함으로써	-14308
▁천장	-14309
▁준비되어	-14310
~6	-14311
▁자꾸	-14312
▁중등	-14313
여명의	-14314
▁먹어야	-14315
▁양식을	-14316
유엔	-14317
▁사양	-14318
▁칭찬	-14319
▁포항	-14320
▁분석된다	-14321
ob	-14322
▁외과	-14323
▁평범	-14324
주의가	-14325
▁안정을	-14326
▁장면을	-14327
▁콜라겐	-14328
천을	-14329
회말	-14330
▁무산	-14331
▁인근에	-14332
▁텍스트를	-14333
▁볶	-14334
▁그저	-14335
▁만일	-14336
▁불일	-14337
▁슬로	-14338
▁연체	-14339
▁지위	-14340
▁히드	-14341
▁검증을	-14342
▁똑같은	-14343
▁정의를	-14344
▁어디에서	-14345
▁3%	-14346
▁오존	-14347
▁반죽	-14348
▁증식	-14349
기준을	-14350
▁가족을	-14351
▁원리를	-14352
▁이동식	-14353
▁디자인의	-14354
기온	-14355
남미	-14356
속도	-14357
▁덕트	-14358
▁상임	-14359
▁채소	-14360
노이드	-14361
▁건물이	-14362
▁단어를	-14363
▁법률의	-14364
외과	-14365
▁김성	-14366
▁낙하	-14367
▁완공	-14368
▁핵심적인	-14369
▁전국적으로	-14370
물인	-14371
▁인문	-14372
▁방안에	-14373
▁연장되어	-14374
▁있는지에	-14375
▁악영	-14376
▁구축을	-14377
▁사령	-14378
▁상가	-14379
▁노인의	-14380
▁방법들	-14381
▁알아보고	-14382
머를	-14383
▁시선	-14384
되었기	-14385
중학교	-14386
▁교사는	-14387
▁모서리	-14388
▁상세히	-14389
▁연장하는	-14390
▁청소년의	-14391
그녀	-14392
▁금메	-14393
▁밥을	-14394
▁무게를	-14395
▁위상을	-14396
▁인식과	-14397
▁티타늄	-14398
▁금융위기	-14399
▁환송한다	-14400
▁햄	-14401
마가	-14402
▁개량	-14403
하우스	-14404
▁어드레	-14405
▁종류를	-14406
PL	-14407
▁바뀐	-14408
▁불을	-14409
▁미세한	-14410
▁질병을	-14411
▁74	-14412
▁노란	-14413
▁선을	-14414
▁보조금	-14415
▁마련되는	-14416
▁군으로부터	-14417
▁방법도	-14418
셔닝	-14419
▁얼음	-14420
▁감사를	-14421
▁위치된	-14422
▁확대할	-14423
▁장소에서	-14424
▁현저하게	-14425
▁남긴	-14426
▁마르	-14427
▁수명을	-14428
▁실적이	-14429
▁이용을	-14430
시킵니다	-14431
(116)	-14432
▁확보하는	-14433
▁사용함으로써	-14434
설에	-14435
워킹	-14436
▁듣는	-14437
▁맞고	-14438
▁맡아	-14439
▁여야	-14440
▁외면	-14441
▁분석과	-14442
(1,	-14443
▁김태	-14444
▁진주	-14445
교육청	-14446
▁수신부	-14447
▁자료로	-14448
▁촉매를	-14449
▁캠프	-14450
▁속도는	-14451
▁국가들이	-14452
▁텔레비전	-14453
▁강경	-14454
▁농산	-14455
▁단말의	-14456
▁않았어요	-14457
▁탈락	-14458
▁또다시	-14459
▁극복하기	-14460
▁어울리는	-14461
▁본질적으로	-14462
방식	-14463
유기	-14464
▁다자	-14465
▁속의	-14466
▁전액	-14467
▁생산된	-14468
▁판결이	-14469
▁받아들일	-14470
양성	-14471
▁가루	-14472
▁오를	-14473
▁가르쳐	-14474
▁금속을	-14475
▁사태를	-14476
움과	-14477
▁레드	-14478
▁쓰지	-14479
▁제어부를	-14480
이소	-14481
▁서면	-14482
▁피난	-14483
▁한강	-14484
▁대체할	-14485
▁제조방법	-14486
▁조립체는	-14487
▁형성되며	-14488
▁엇	-14489
매김	-14490
영의	-14491
억원에	-14492
▁설정한다	-14493
▁패키지를	-14494
98	-14495
차전	-14496
년간의	-14497
▁공부를	-14498
▁영상은	-14499
▁힘입어	-14500
▁관내	-14501
▁문장	-14502
▁분당	-14503
▁서로의	-14504
▁소재의	-14505
(124)	-14506
국립	-14507
를린	-14508
(34	-14509
▁달아	-14510
▁격차가	-14511
▁기재의	-14512
히드	-14513
▁압류	-14514
▁한데	-14515
알코올	-14516
▁중간에	-14517
▁콘택트	-14518
▁감염자가	-14519
▁피해자가	-14520
병이	-14521
▁아크	-14522
▁모드에	-14523
▁소유권	-14524
▁전원이	-14525
▁체제의	-14526
▁도래	-14527
▁미성	-14528
▁잉크젯	-14529
▁준비할	-14530
▁린	-14531
▁갈라	-14532
▁법안	-14533
▁상을	-14534
▁주를	-14535
학생의	-14536
▁만족도가	-14537
해외	-14538
▁끝이	-14539
▁연구에서도	-14540
▁확신합니다	-14541
▁절곡	-14542
교육은	-14543
▁검토해	-14544
▁동남아	-14545
▁신호와	-14546
▁0.05	-14547
▁들어오는	-14548
▁순서대로	-14549
▁갚	-14550
분과	-14551
▁맞서	-14552
▁정성	-14553
▁케어	-14554
자들에	-14555
▁않았기	-14556
▁테이블을	-14557
▁NA	-14558
▁상생	-14559
▁재밌	-14560
▁취향	-14561
▁통기	-14562
▁처음에	-14563
▁패턴은	-14564
▁어셈블리는	-14565
니가	-14566
조작	-14567
▁재직	-14568
▁평판	-14569
TB	-14570
검출	-14571
패드	-14572
▁Zn	-14573
▁납입	-14574
▁한식	-14575
컴퓨터	-14576
▁끝나고	-14577
▁근무하는	-14578
▁인터뷰를	-14579
경과	-14580
▁공예	-14581
▁청도	-14582
▁360	-14583
▁솟	-14584
저우	-14585
회복	-14586
▁노광	-14587
▁동향	-14588
▁선전	-14589
▁잔디	-14590
▁포스	-14591
성에서	-14592
건조	-14593
▁가난	-14594
▁도입한	-14595
▁주문할	-14596
▁가지를	-14597
▁의사의	-14598
▁이내로	-14599
▁피하기	-14600
단계에서	-14601
부서	-14602
션에	-14603
여름	-14604
▁안녕	-14605
▁황금	-14606
통의	-14607
▁리모	-14608
▁추석	-14609
문으로	-14610
운동을	-14611
주의와	-14612
RC	-14613
부하	-14614
황을	-14615
▁기생	-14616
절차를	-14617
▁워크숍	-14618
▁재정적	-14619
▁방송을	-14620
▁업로드	-14621
▁촬영한	-14622
▁그곳에서	-14623
▁세계보건기구	-14624
▁역동	-14625
그들은	-14626
▁경험은	-14627
▁클래스	-14628
▁접속되어	-14629
아릴	-14630
▁견해가	-14631
▁에이즈	-14632
▁테이퍼	-14633
▁유예	-14634
졌어요	-14635
구멍	-14636
▁미네랄	-14637
▁패스트	-14638
▁연결되며	-14639
▁덩어	-14640
▁우회	-14641
▁검토를	-14642
▁마음으로	-14643
▁뭉	-14644
▁차분	-14645
▁형이	-14646
▁출신의	-14647
▁대법원은	-14648
▁확대하고	-14649
비한	-14650
시길	-14651
▁67	-14652
▁블렌	-14653
▁학년	-14654
▁잃어버	-14655
▁협의를	-14656
▁예정이라고	-14657
▁디스플레이할	-14658
가리	-14659
▁71	-14660
▁리듬	-14661
▁상해	-14662
▁양상	-14663
▁솔루션을	-14664
▁이벤트에	-14665
▁미루	-14666
▁뱅크	-14667
▁함은	-14668
▁경험에	-14669
▁방향은	-14670
▁천식	-14671
▁보관할	-14672
망의	-14673
▁사냥	-14674
▁창의적	-14675
▁찾았다	-14676
▁바이러스에	-14677
▁거는	-14678
▁먹지	-14679
▁열전	-14680
▁주면	-14681
▁비로소	-14682
▁인용해	-14683
▁전송을	-14684
▁하나씩	-14685
▁억제하고	-14686
▁정의하고	-14687
▁편안함을	-14688
▁프로세서를	-14689
님은	-14690
사카	-14691
어린이	-14692
자산운용	-14693
▁전적으로	-14694
혈당	-14695
▁기질	-14696
▁배제할	-14697
▁생각에	-14698
▁샷	-14699
론과	-14700
비트	-14701
▁청산	-14702
▁유지되는	-14703
▁랜드	-14704
▁만드	-14705
▁수와	-14706
▁등장한	-14707
▁슛	-14708
▁FC	-14709
▁반해	-14710
▁백색	-14711
▁임무	-14712
앞으로	-14713
▁버너	-14714
▁유관	-14715
▁채로	-14716
축구연맹	-14717
▁어렵다고	-14718
▁자발적으로	-14719
▁안의	-14720
▁완치	-14721
▁식에서	-14722
▁참가한	-14723
▁있음에도	-14724
VC	-14725
▁신청할	-14726
▁최선의	-14727
▁추가할	-14728
▁행위로	-14729
▁기설정된	-14730
▁블루투스	-14731
▁확인해야	-14732
▁이동시키는	-14733
iz	-14734
▁가정의	-14735
▁건축물	-14736
▁결함이	-14737
▁새마을	-14738
▁강조한다	-14739
▁구동하는	-14740
▁성공했다	-14741
▁회사입니다	-14742
계산	-14743
광고	-14744
▁취출	-14745
였다고	-14746
▁나노입	-14747
▁동반한	-14748
▁본체와	-14749
▁위반한	-14750
▁주민이	-14751
축에	-14752
▁알람	-14753
▁정적	-14754
▁기록이	-14755
▁본체를	-14756
▁빈도가	-14757
▁산출할	-14758
▁어르신	-14759
▁저희와	-14760
▁프로그램으로	-14761
채를	-14762
행한	-14763
▁Mg	-14764
▁○○	-14765
글랜드	-14766
▁관측이	-14767
▁랙	-14768
방사	-14769
파울루	-14770
▁바꾸는	-14771
de	-14772
응답	-14773
질러	-14774
▁못하면	-14775
▁측정하고	-14776
▁활용되고	-14777
▁CJ	-14778
▁서초	-14779
▁시흥	-14780
▁신도	-14781
자리에	-14782
▁거리는	-14783
▁불공정	-14784
▁의식을	-14785
▁사무총장은	-14786
욕을	-14787
▁득점	-14788
▁외벽	-14789
분으로	-14790
▁많아요	-14791
▁사람도	-14792
▁유방암	-14793
▁곳곳에서	-14794
▁생성하여	-14795
▁하는데요	-14796
▁프레젠테이션	-14797
▁모험	-14798
▁용지	-14799
▁여파로	-14800
▁지나면	-14801
▁경기도의	-14802
▁메이저리그	-14803
▁열화	-14804
▁은행이	-14805
▁전극에	-14806
▁상태이다	-14807
IB	-14808
일보	-14809
풍을	-14810
▁밤에	-14811
▁전류가	-14812
▁좋다고	-14813
▁브랜드를	-14814
▁찍은	-14815
▁타이틀	-14816
▁항생제	-14817
▁발명에서는	-14818
▁별표	-14819
▁역설	-14820
▁전환하는	-14821
▁정의된다	-14822
촉매	-14823
▁대상인	-14824
▁이뤄지지	-14825
▁버전	-14826
▁인건	-14827
▁허락	-14828
▁사진과	-14829
▁외측에	-14830
▁전시회	-14831
▁전문성을	-14832
▁만기	-14833
▁살려	-14834
▁추모	-14835
▁방문을	-14836
▁역할은	-14837
▁연산을	-14838
▁작업은	-14839
▁전국의	-14840
터테인먼트	-14841
OM	-14842
▁내원	-14843
▁리프	-14844
▁트로	-14845
탄소년	-14846
▁공장을	-14847
▁찾아가	-14848
▁측면의	-14849
기보다는	-14850
▁같은데요	-14851
▁개발도상	-14852
▁규격	-14853
▁등교	-14854
▁IMF	-14855
▁가격의	-14856
▁시프트	-14857
▁접하는	-14858
▁샐	-14859
일단	-14860
▁2.	-14861
▁핸드폰	-14862
▁동작하는	-14863
▁잇는	-14864
▁유익한	-14865
▁들었어요	-14866
▁자리매김	-14867
▁유권	-14868
▁다니는	-14869
메이	-14870
▁폐암	-14871
월드컵	-14872
▁매체는	-14873
94	-14874
수행	-14875
▁내벽	-14876
느냐에	-14877
▁성분은	-14878
그러니까	-14879
▁준거	-14880
▁향이	-14881
▁브러시	-14882
▁원료를	-14883
▁확장된	-14884
▁설계되었습니다	-14885
▁반입	-14886
었으나	-14887
주시고	-14888
▁(4)	-14889
▁모스크	-14890
▁열악한	-14891
▁의미의	-14892
▁태어난	-14893
▁궁극적으로	-14894
▁$	-14895
▁동화	-14896
▁페닐	-14897
우리의	-14898
증으로	-14899
▁납세의	-14900
▁어쨌든	-14901
▁이행을	-14902
▁3000	-14903
▁대부분을	-14904
▁알려주십시오	-14905
▁룰	-14906
감한	-14907
케이터	-14908
UN	-14909
▁기호	-14910
▁인명	-14911
▁침체	-14912
▁사용은	-14913
▁산출된	-14914
▁진동을	-14915
▁참석할	-14916
▁나타났으며	-14917
터링	-14918
함은	-14919
▁마침내	-14920
▁투여하는	-14921
▁고가	-14922
▁비누	-14923
▁극대화	-14924
▁암모니아	-14925
▁3.	-14926
▁면도	-14927
업체가	-14928
하시어	-14929
▁내부를	-14930
▁부작용이	-14931
▁카트리지	-14932
등에	-14933
▁면이	-14934
▁싱글	-14935
▁운항	-14936
▁이례	-14937
추진	-14938
igh	-14939
▁바쁜	-14940
▁찾지	-14941
▁포획	-14942
▁그다음	-14943
▁행동의	-14944
▁구축하는	-14945
리나	-14946
▁전산	-14947
▁조작에	-14948
▁차별화된	-14949
▁상무	-14950
▁원전	-14951
▁잡는	-14952
▁접점	-14953
살이	-14954
외부	-14955
해보면	-14956
▁마을로	-14957
▁송신기	-14958
▁불가피한	-14959
별한	-14960
▁되찾	-14961
드려요	-14962
리도	-14963
리조	-14964
쾌한	-14965
토의	-14966
▁가기	-14967
▁혼인	-14968
▁공정의	-14969
▁않고도	-14970
프로필렌	-14971
▁방문하여	-14972
▁기밀	-14973
▁새해	-14974
▁휴양	-14975
▁게스트	-14976
▁음식물	-14977
▁평가하였다	-14978
▁홈페이지를	-14979
▁찰	-14980
▁첫날	-14981
▁출동	-14982
▁확대하는	-14983
▁이용하였다	-14984
▁8,	-14985
▁노선	-14986
▁벽을	-14987
▁의복	-14988
▁청주	-14989
▁버스를	-14990
▁참여했다	-14991
음료	-14992
▁답을	-14993
▁대대	-14994
▁동생	-14995
▁배럴	-14996
▁유화	-14997
저희는	-14998
▁금요일	-14999
▁상승을	-15000
▁의료용	-15001
▁투자하는	-15002
▁말했습니다	-15003
돼요	-15004
처의	-15005
▁것의	-15006
▁개념에	-15007
▁구매한	-15008
▁뇌졸중	-15009
▁금융기관	-15010
배출	-15011
▁어쩌	-15012
▁팬들의	-15013
▁리셋	-15014
▁넘치는	-15015
▁종사자	-15016
▁지방산	-15017
CF	-15018
▁흠	-15019
▁배운	-15020
소송법	-15021
였지만	-15022
▁데스크	-15023
▁인지적	-15024
▁자체로	-15025
▁다채로운	-15026
대체	-15027
▁손목	-15028
▁염려	-15029
부분을	-15030
▁드래그	-15031
▁사태로	-15032
▁온도는	-15033
▁급격하게	-15034
RT	-15035
병의	-15036
▁버려	-15037
상태를	-15038
▁용산	-15039
▁기록된	-15040
▁떨어질	-15041
▁많다는	-15042
▁진행해	-15043
▁패턴에	-15044
▁있겠습니다	-15045
400	-15046
▁인천광역시	-15047
우와	-15048
▁농경	-15049
▁얼룩	-15050
▁증례	-15051
▁책정	-15052
▁가지의	-15053
▁비교를	-15054
▁알레르	-15055
▁소비자들이	-15056
▁요동	-15057
▁아이들	-15058
▁수수료를	-15059
데믹	-15060
첫째	-15061
▁차체	-15062
▁뜻이다	-15063
▁위원장	-15064
▁지속될	-15065
원심판결	-15066
▁객관적인	-15067
▁폴리올레핀	-15068
▁곤충	-15069
▁농협	-15070
▁외출	-15071
▁이겨	-15072
▁작동을	-15073
▁촉매의	-15074
(260)	-15075
▁IB	-15076
▁감기	-15077
▁앞장	-15078
▁선물을	-15079
▁엘라스토	-15080
▁수련	-15081
▁식기	-15082
▁가스가	-15083
▁거래의	-15084
▁중장기	-15085
▁'2019	-15086
유통	-15087
즈의	-15088
▁생성을	-15089
▁판매할	-15090
▁기재되어	-15091
마의	-15092
소화	-15093
▁가금	-15094
조치를	-15095
▁걱정이	-15096
▁감소시킨다	-15097
감도	-15098
▁구미	-15099
▁사내	-15100
▁삼아	-15101
▁암을	-15102
▁캡쳐	-15103
▁견해를	-15104
▁선정하였다	-15105
▁애플리케이션은	-15106
ack	-15107
▁흡수성	-15108
▁마련됐다	-15109
▁시작하여	-15110
독일	-15111
▁끝날	-15112
▁멸종	-15113
▁올리	-15114
▁해명	-15115
▁정신을	-15116
▁교통사고	-15117
▁서비스로	-15118
97	-15119
남에	-15120
▁신임	-15121
할수록	-15122
▁기본권	-15123
▁도출된	-15124
▁때로는	-15125
▁공식적으로	-15126
6-	-15127
심은	-15128
▁서로를	-15129
▁상대적인	-15130
▁홈페이지에	-15131
▁자택	-15132
▁충성	-15133
▁고강도	-15134
▁알리고	-15135
▁당사자의	-15136
중독	-15137
침을	-15138
▁블로	-15139
인들을	-15140
책임을	-15141
▁2.0	-15142
▁시설에	-15143
▁화상의	-15144
▁년간	-15145
▁소금	-15146
▁실행될	-15147
▁가해지는	-15148
지향	-15149
▁고교	-15150
▁강화된	-15151
▁모습은	-15152
▁통증을	-15153
▁미친다는	-15154
규직	-15155
▁적시	-15156
▁나누는	-15157
▁반응은	-15158
▁사건에서	-15159
더욱	-15160
신종	-15161
즈가	-15162
지정	-15163
▁어휘	-15164
▁개념과	-15165
▁구성이	-15166
▁추정할	-15167
(212)	-15168
▁이산화탄	-15169
▁제기된다	-15170
▁가설을	-15171
▁컴퓨터를	-15172
▁광범위하게	-15173
졌기	-15174
▁넣은	-15175
▁댄스	-15176
게이트	-15177
LT	-15178
역은	-15179
종과	-15180
▁놓인	-15181
▁베타	-15182
▁컨택	-15183
▁밀도가	-15184
▁환경적	-15185
▁최적화된	-15186
▁만들어졌습니다	-15187
IM	-15188
▁단계가	-15189
▁가열하는	-15190
▁예상했다	-15191
IF	-15192
현의	-15193
▁김종	-15194
▁진전	-15195
▁부분이다	-15196
금액	-15197
▁겨냥	-15198
▁관념	-15199
▁맛볼	-15200
▁봐도	-15201
메모리	-15202
▁신문은	-15203
▁중합체를	-15204
PM	-15205
▁줬	-15206
두를	-15207
온도	-15208
▁노조	-15209
렸다고	-15210
▁상고이	-15211
▁아이폰	-15212
▁장소로	-15213
▁국제기구	-15214
▁의거하여	-15215
▁칼럼	-15216
부서의	-15217
▁기관은	-15218
▁변수에	-15219
▁조치는	-15220
▁코스피	-15221
▁교차하는	-15222
▁배면	-15223
▁해시	-15224
▁개시는	-15225
▁무대를	-15226
▁복호화	-15227
▁어두운	-15228
▁있음과	-15229
▁흥미를	-15230
▁아이템을	-15231
▁포인트를	-15232
▁죄송하지만	-15233
뒀다	-15234
켰다	-15235
▁차입	-15236
가스를	-15237
▁아닌가	-15238
85	-15239
구간	-15240
처에	-15241
▁돌아오	-15242
▁있겠다	-15243
▁전지의	-15244
▁1950	-15245
칼슘	-15246
▁세액	-15247
▁편익	-15248
교육이	-15249
동으로	-15250
▁MRI	-15251
▁학생과	-15252
▁다이아몬드	-15253
설은	-15254
심과	-15255
있게	-15256
▁셔츠	-15257
▁배경을	-15258
▁예정인	-15259
▁지수를	-15260
▁플레이어	-15261
▁하이드로	-15262
▁짚	-15263
둘러	-15264
밀리	-15265
orm	-15266
법원은	-15267
▁전통적	-15268
▁대금	-15269
관리에	-15270
▁자랑하는	-15271
▁휴대전화	-15272
▁넌	-15273
공장	-15274
초를	-15275
▁깊게	-15276
▁원가	-15277
방향을	-15278
케이스	-15279
▁게임의	-15280
▁다국적	-15281
▁무단	-15282
질랜드	-15283
▁350	-15284
▁거기서	-15285
▁돼지고	-15286
▁선택의	-15287
▁수행된	-15288
▁추출하는	-15289
▁꿀	-15290
한을	-15291
▁평창	-15292
받는다	-15293
장치가	-15294
▁내부로	-15295
▁대도시	-15296
▁미팅을	-15297
▁향상시키고	-15298
▁고생	-15299
▁소각	-15300
▁심도	-15301
▁도착한	-15302
메타	-15303
저축	-15304
▁명절	-15305
▁소중	-15306
▁아키	-15307
▁능력에	-15308
▁블록체	-15309
▁자산의	-15310
▁적용하고	-15311
▁가능한가요	-15312
티스	-15313
▁청취	-15314
스트림	-15315
품으로	-15316
▁스트링	-15317
▁개별적인	-15318
▁비휘발성	-15319
▁경도	-15320
▁나빠	-15321
▁이룬다	-15322
▁확대될	-15323
▁헝	-15324
오버	-15325
▁백업	-15326
▁아픈	-15327
▁외장	-15328
▁자부	-15329
차이즈	-15330
▁변경이	-15331
▁매력적인	-15332
▁수능	-15333
안에서	-15334
▁정의한다	-15335
▁기자회견을	-15336
▁머리카	-15337
▁전달되는	-15338
▁평가된다	-15339
심판	-15340
▁DR	-15341
▁메탄	-15342
▁재원	-15343
▁프랜	-15344
▁소득을	-15345
▁지시를	-15346
▁합의에	-15347
이든	-15348
▁강연	-15349
▁되길	-15350
거리는	-15351
▁낮추는	-15352
SE	-15353
로봇	-15354
▁계승	-15355
▁스퍼	-15356
▁유족	-15357
▁조제	-15358
▁계획은	-15359
▁생산에	-15360
▁예산이	-15361
ge	-15362
▁전승	-15363
▁방식과	-15364
▁학습자	-15365
▁아래에서	-15366
▁적용한다	-15367
▁들은	-15368
▁변성	-15369
주의는	-15370
곳을	-15371
▁법에	-15372
▁불활성	-15373
▁커지는	-15374
▁고정되는	-15375
▁심근	-15376
▁예는	-15377
였어요	-15378
▁결합한	-15379
▁관점을	-15380
44	-15381
GA	-15382
ans	-15383
▁일원	-15384
▁잠을	-15385
▁횡령	-15386
▁WTO	-15387
▁올레핀	-15388
▁"5	-15389
▁누름	-15390
▁토요일	-15391
▁대회에서	-15392
해제	-15393
▁다해	-15394
▁쪽에	-15395
아세안	-15396
▁감소가	-15397
▁그룹이	-15398
변량	-15399
집에	-15400
세포의	-15401
▁수치는	-15402
▁컨버터	-15403
▁제기됐다	-15404
박을	-15405
조례	-15406
지않	-15407
▁마늘	-15408
관계의	-15409
▁도로가	-15410
▁위주의	-15411
▁프린팅	-15412
▁형성에	-15413
자에게는	-15414
막에	-15415
반사	-15416
보유	-15417
▁간경	-15418
▁교도	-15419
환자가	-15420
▁법원에	-15421
▁활동으로	-15422
▁자체적으로	-15423
▁로그인	-15424
▁2030	-15425
▁전달한다	-15426
모드	-15427
청정	-15428
▁끝났	-15429
▁파쇄	-15430
달러에	-15431
▁변형을	-15432
▁연구소	-15433
▁관련성이	-15434
▁무엇보다도	-15435
성인	-15436
▁붙잡	-15437
▁진학	-15438
▁질이	-15439
▁남성의	-15440
▁문화유산	-15441
▁배터리를	-15442
상대	-15443
열의	-15444
▁스캐닝	-15445
▁휘발성	-15446
▁관련되어	-15447
▁송신한다	-15448
▁외부에서	-15449
바마	-15450
▁자를	-15451
▁개정을	-15452
▁통증이	-15453
▁회의는	-15454
▁검출하고	-15455
▁오스트리아	-15456
▁공극	-15457
▁노원	-15458
▁휘도	-15459
답니다	-15460
▁순수한	-15461
▁어렵습니다	-15462
▁관중	-15463
▁어디로	-15464
▁이거는	-15465
▁에너지가	-15466
나와	-15467
매도	-15468
▁과징	-15469
▁다들	-15470
▁장악	-15471
▁장의	-15472
▁관리부	-15473
▁님	-15474
▁붓	-15475
▁뮤직	-15476
▁키트	-15477
▁연구진은	-15478
▁교원	-15479
▁맵핑	-15480
▁여의도	-15481
▁제공하고자	-15482
▁웹사이트에서	-15483
15)	-15484
▁신약	-15485
▁종단	-15486
▁경찰의	-15487
▁릴레이	-15488
▁있고요	-15489
▁행동이	-15490
▁뻗어	-15491
9,	-15492
년째	-15493
코스	-15494
▁불분	-15495
(27)	-15496
▁실험실	-15497
▁태평양	-15498
▁감사해요	-15499
▁경제적인	-15500
▁예방하기	-15501
▁무엇인가요	-15502
백만	-15503
▁쌓아	-15504
물질이	-15505
▁유형은	-15506
(211)	-15507
연수	-15508
메리카	-15509
▁회의가	-15510
하였지만	-15511
션의	-15512
▁국부	-15513
▁전과	-15514
▁전술	-15515
모바일	-15516
▁스케줄링	-15517
으실	-15518
▁내적	-15519
▁영향력	-15520
▁폭으로	-15521
▁사례로	-15522
▁소수의	-15523
▁수정된	-15524
막은	-15525
심에	-15526
con	-15527
▁푸른	-15528
▁라인에	-15529
▁영화의	-15530
▁한눈에	-15531
▁간단하고	-15532
▁정확도를	-15533
▁숭	-15534
보전	-15535
▁도난	-15536
▁양은	-15537
▁일로	-15538
그룹이	-15539
카메라	-15540
▁그레이	-15541
▁절제술	-15542
▁줄었다	-15543
▁휴가를	-15544
곳이	-15545
상승	-15546
▁동양	-15547
▁다공질	-15548
▁관해서는	-15549
(=	-15550
회초	-15551
ial	-15552
▁밸브를	-15553
▁역사와	-15554
▁시행하는	-15555
▁움직임에	-15556
∼6	-15557
나도	-15558
▁도달할	-15559
▁맞습니다	-15560
교가	-15561
▁누설	-15562
▁조별	-15563
▁설계를	-15564
▁관련성을	-15565
▁느끼게	-15566
이었지만	-15567
▁병역	-15568
▁자칫	-15569
▁건물에	-15570
▁공사를	-15571
▁메타데이터	-15572
무늬	-15573
지주	-15574
▁계단	-15575
▁평택	-15576
▁소자는	-15577
▁이해와	-15578
▁바이어스	-15579
▁선정됐다	-15580
아무	-15581
(2,	-15582
▁EL	-15583
▁내달	-15584
▁높지	-15585
▁이음	-15586
▁판시	-15587
▁2∼3	-15588
▁1996	-15589
▁아랍	-15590
▁확률을	-15591
▁안전성을	-15592
▁보았습니다	-15593
▁미소	-15594
▁부상을	-15595
▁독성	-15596
▁든다	-15597
▁응력	-15598
▁적색	-15599
▁괜찮을	-15600
때로	-15601
▁나지	-15602
▁몸통	-15603
▁흡기	-15604
물론이	-15605
▁지식이	-15606
과학기술	-15607
거야	-15608
는가	-15609
▁프론	-15610
▁신생아	-15611
▁운동이	-15612
▁이용해서	-15613
▁인에이블	-15614
▁주목받고	-15615
어촌	-15616
▁고시	-15617
▁안료	-15618
▁추첨	-15619
▁텍스	-15620
▁도와주	-15621
▁연결이	-15622
▁표준화	-15623
▁하므로	-15624
음으로써	-15625
▁항바이러스	-15626
공식	-15627
미의	-15628
▁룩	-15629
▁뻔	-15630
▁시기가	-15631
▁전송될	-15632
▁출력된	-15633
▁이용자의	-15634
▁지급하는	-15635
▁원조	-15636
▁에어로졸	-15637
▁축방향으로	-15638
변을	-15639
안타	-15640
창의	-15641
풀이	-15642
행성	-15643
▁김동	-15644
▁약관	-15645
▁저와	-15646
▁터뜨	-15647
▁매체의	-15648
▁시기는	-15649
▁오르는	-15650
▁항목에	-15651
물론이죠	-15652
▁드리고자	-15653
관한	-15654
▁내륙	-15655
▁요법	-15656
▁생산이	-15657
▁여성을	-15658
버그	-15659
▁Ar	-15660
(350)	-15661
▁자동차를	-15662
▁카테고리	-15663
담배	-15664
▁날을	-15665
▁모으고	-15666
▁보험에	-15667
▁전기차	-15668
▁지표를	-15669
▁패널은	-15670
▁0.01	-15671
▁에너지의	-15672
보에	-15673
▁높였다	-15674
▁리모델	-15675
문과	-15676
▁기동	-15677
▁누릴	-15678
▁물고	-15679
▁그녀를	-15680
▁자국의	-15681
▁주제에	-15682
▁지정한	-15683
▁대목	-15684
▁보습	-15685
▁엔진의	-15686
▁저장되어	-15687
▁공통적으로	-15688
▁권취	-15689
▁나열	-15690
▁이방	-15691
▁이적	-15692
▁두꺼운	-15693
▁시간적	-15694
▁파일의	-15695
▁간다	-15696
▁먹으	-15697
▁유추	-15698
이었어요	-15699
▁규정함을	-15700
▁접속하는	-15701
▁GS	-15702
▁열이	-15703
▁물질에	-15704
▁필름은	-15705
▁인터랙	-15706
문화유산	-15707
▁관광객의	-15708
▁꽂	-15709
제도가	-15710
층에서	-15711
▁수입을	-15712
▁없었고	-15713
시각	-15714
히지	-15715
▁st	-15716
▁명명	-15717
▁인격	-15718
▁원고에게	-15719
▁측정하여	-15720
▁가능하다고	-15721
▁정의하였다	-15722
감지	-15723
노인	-15724
티를	-15725
(35	-15726
▁광택	-15727
치료를	-15728
▁고성능	-15729
▁데에는	-15730
▁모습이다	-15731
▁달콤	-15732
▁식료	-15733
▁압수	-15734
개소	-15735
▁저널	-15736
▁시원한	-15737
터로	-15738
▁점화	-15739
▁페놀	-15740
▁불편한	-15741
그러면서	-15742
드리고자	-15743
▁기여하는	-15744
▁지방자치단체의	-15745
▁용어를	-15746
▁생각보다	-15747
농구	-15748
▁강사	-15749
▁기계의	-15750
▁보냈다	-15751
▁입자는	-15752
▁지수가	-15753
▁연관성이	-15754
▁확인했습니다	-15755
음성	-15756
▁취한	-15757
▁받으실	-15758
▁호텔에	-15759
▁펼쳐진다	-15760
▁중기	-15761
▁근거한	-15762
▁의미와	-15763
▁이라크	-15764
▁조정이	-15765
▁아버지가	-15766
▁현실적인	-15767
▁가능해진다	-15768
700	-15769
▁수량	-15770
마스크	-15771
▁맛있게	-15772
좋습니다	-15773
하신다면	-15774
▁학부모님의	-15775
케닐	-15776
▁대개	-15777
▁상주	-15778
▁드릴까요	-15779
▁이직	-15780
▁존속	-15781
▁하되	-15782
▁단단한	-15783
▁투자의	-15784
▁보고서에	-15785
▁관료	-15786
(38)	-15787
▁조절이	-15788
교의	-15789
산성	-15790
▁깨달	-15791
▁올릴	-15792
▁공정이	-15793
▁예방에	-15794
▁경제성장	-15795
열이	-15796
▁토너	-15797
▁영화는	-15798
▁지적도	-15799
▁알려지지	-15800
▁지속되는	-15801
경부	-15802
적은	-15803
III	-15804
▁위조	-15805
▁인보	-15806
소득세	-15807
▁제조를	-15808
▁임피던스	-15809
▁친구들이	-15810
조화	-15811
▁모인	-15812
▁에이	-15813
▁잃은	-15814
▁조현	-15815
▁남편이	-15816
▁내구성	-15817
▁바라는	-15818
▁수산화	-15819
▁해를	-15820
▁모듈에	-15821
▁프로파일을	-15822
▁텅	-15823
▁김민	-15824
공사가	-15825
▁농도는	-15826
▁두께의	-15827
▁주택을	-15828
포구	-15829
▁촉발	-15830
▁배치되며	-15831
▁결절	-15832
▁무거운	-15833
▁이격된	-15834
▁유입되는	-15835
▁컴퓨터에	-15836
▁보겠습니다	-15837
▁IV	-15838
▁누리	-15839
▁응시	-15840
▁지은	-15841
▁불투명	-15842
▁피보험	-15843
▁사용자와	-15844
종에	-15845
해줄	-15846
▁권위	-15847
▁사운	-15848
▁연쇄	-15849
▁관절염	-15850
▁비용과	-15851
▁부족으로	-15852
▁임진	-15853
편으로	-15854
▁건조한	-15855
▁들어온	-15856
▁잡았다	-15857
▁전기를	-15858
▁재미있는	-15859
▁조사에서	-15860
▁구청장에게	-15861
▁넣을	-15862
▁출국	-15863
▁피곤	-15864
▁수단의	-15865
▁연구도	-15866
▁요구했다	-15867
▁봤을	-15868
▁원이	-15869
▁에탄올	-15870
▁차이로	-15871
▁그렇다고	-15872
▁증가하여	-15873
▁프랑스의	-15874
▁시작되었다	-15875
▁4.	-15876
▁이룰	-15877
▁탈북	-15878
▁부담한다	-15879
▁에이전트	-15880
네이	-15881
▁인삼	-15882
▁장면이	-15883
▁언급했다	-15884
브리	-15885
지대	-15886
▁달린	-15887
일리	-15888
▁틀을	-15889
▁선택될	-15890
▁규정되어	-15891
▁메시지가	-15892
두로	-15893
셔츠	-15894
▁파형	-15895
▁국가로	-15896
▁마사지	-15897
▁재질로	-15898
66	-15899
TI	-15900
지배	-15901
창업	-15902
▁세력	-15903
▁반려동	-15904
▁음성을	-15905
▁협력이	-15906
▁결정되는	-15907
▁주민들은	-15908
▁미립자	-15909
▁사업자가	-15910
▁한국에서는	-15911
PU	-15912
-2-	-15913
▁물론이고	-15914
▁폴리아미드	-15915
▁후퇴	-15916
▁119	-15917
▁능력과	-15918
▁물체를	-15919
▁분명한	-15920
▁브로드	-15921
▁증가할수록	-15922
펌프	-15923
(27	-15924
▁당황	-15925
▁쉽다	-15926
▁패치	-15927
▁경로에	-15928
▁무리가	-15929
▁순위를	-15930
▁대기오염	-15931
▁아이들은	-15932
가며	-15933
려서	-15934
설명	-15935
▁청색	-15936
▁비교한	-15937
▁자격이	-15938
▁중심을	-15939
저항	-15940
프탈	-15941
▁베어	-15942
▁콘덴	-15943
라비아	-15944
▁다리를	-15945
▁지수는	-15946
▁관통하는	-15947
▁구분된다	-15948
▁보호하고	-15949
화해	-15950
▁무의	-15951
환경을	-15952
▁기판은	-15953
▁이용하면	-15954
분위	-15955
순위	-15956
환이	-15957
▁면책	-15958
▁강조한	-15959
▁구간을	-15960
▁업계의	-15961
▁핵실험	-15962
▁반려동물	-15963
2/	-15964
▁부터	-15965
▁연성	-15966
▁색상이	-15967
▁전압의	-15968
▁지급을	-15969
▁티켓을	-15970
▁검출하기	-15971
▁과도하게	-15972
▁화합물과	-15973
팽창	-15974
▁광명	-15975
▁호스	-15976
▁결제를	-15977
▁협동조합	-15978
더를	-15979
류와	-15980
▁wt	-15981
▁소를	-15982
이라고도	-15983
▁국민연금	-15984
▁앞으로는	-15985
▁혼합하여	-15986
▁모르겠어요	-15987
▁이루어지며	-15988
▁불꽃	-15989
▁변형된	-15990
▁의문이	-15991
▁드러냈다	-15992
▁알려드리	-15993
▁해주세요	-15994
▁행사에는	-15995
▁관련해서는	-15996
비록	-15997
MOS	-15998
▁불만	-15999
▁매출액	-16000
▁미술관	-16001
▁영역들	-16002
▁결정적인	-16003
▁변동성이	-16004
▁상파울루	-16005
▁쿨	-16006
학급	-16007
▁말이다	-16008
▁속한다	-16009
▁쉽습니다	-16010
▁발생하였다	-16011
교육과	-16012
▁생산할	-16013
▁없거나	-16014
▁기록하는	-16015
▁갓	-16016
-2)	-16017
▁내에서의	-16018
OD	-16019
급적	-16020
▁미뤄	-16021
▁이진	-16022
▁조속	-16023
▁나서는	-16024
▁부착되어	-16025
소재	-16026
▁양면	-16027
대통령	-16028
▁영어를	-16029
▁입력할	-16030
▁선별진료	-16031
▁근본적으로	-16032
▁예술의	-16033
▁지방족	-16034
▁출시한	-16035
▁희망을	-16036
▁이뤄졌다	-16037
키퍼	-16038
포스트	-16039
▁목적의	-16040
▁안타까	-16041
▁Ca	-16042
▁맑은	-16043
▁에서	-16044
▁광주시	-16045
▁돌출된	-16046
▁인식은	-16047
그라	-16048
천억	-16049
▁123	-16050
▁촬영을	-16051
▁할까요	-16052
▁프라이버	-16053
용기	-16054
1),	-16055
▁카메라가	-16056
후보	-16057
age	-16058
▁법이	-16059
▁적대	-16060
▁방안도	-16061
▁자발적	-16062
▁총장은	-16063
▁추정된	-16064
▁필요하신	-16065
▁소비자에게	-16066
▁바위	-16067
원들의	-16068
▁노드에	-16069
▁부득이	-16070
시키는데	-16071
▁구현하는	-16072
▁매장에서	-16073
▁자신감을	-16074
디언	-16075
▁84	-16076
▁문제도	-16077
▁배치하는	-16078
▁시작했습니다	-16079
계좌	-16080
▁귀하와	-16081
▁들어올	-16082
▁보시면	-16083
▁연결해	-16084
런트	-16085
▁영장	-16086
▁잡지	-16087
▁기기에	-16088
▁단절	-16089
▁갑니다	-16090
▁보이지만	-16091
▁높이를	-16092
▁상당의	-16093
▁실적을	-16094
▁절차는	-16095
▁제안에	-16096
▁파스타	-16097
▁구조물의	-16098
▁기다리는	-16099
▁아끼	-16100
원들은	-16101
▁뜻한다	-16102
▁소비자들의	-16103
기능을	-16104
▁논란을	-16105
군사	-16106
▁강행	-16107
▁다저	-16108
▁알기	-16109
▁얻게	-16110
회사는	-16111
(130	-16112
▁독립된	-16113
▁살아남	-16114
▁포함돼	-16115
▁국회에서	-16116
▁드레	-16117
▁수하	-16118
▁여섯	-16119
▁공간적	-16120
▁명으로	-16121
▁원래의	-16122
▁위법이	-16123
▁지원과	-16124
▁1994	-16125
범의	-16126
영국	-16127
타인	-16128
▁분야는	-16129
▁식별자	-16130
▁유지를	-16131
▁커피를	-16132
매가	-16133
필름	-16134
함으로	-16135
▁남자가	-16136
▁배출되는	-16137
▁주도하는	-16138
여개	-16139
췄다	-16140
푸드	-16141
▁자존	-16142
능력이	-16143
▁발언을	-16144
▁보고자	-16145
▁영감을	-16146
▁할아버	-16147
나노	-16148
아래	-16149
토피	-16150
▁깨닫	-16151
▁유성	-16152
▁정산	-16153
활동이	-16154
▁블로그	-16155
▁연락이	-16156
▁지내고	-16157
▁추출한	-16158
▁단백질의	-16159
▁모양으로	-16160
▁추정하는	-16161
겨져	-16162
▁82	-16163
▁본사	-16164
▁빛이	-16165
체에서	-16166
했으면	-16167
▁추출물	-16168
▁유지한다	-16169
▁활용하였다	-16170
장한	-16171
▁Ig	-16172
▁장학	-16173
OICA	-16174
▁권한이	-16175
▁끝나는	-16176
▁색상으로	-16177
▁re	-16178
▁백혈	-16179
▁타는	-16180
단체의	-16181
근혜	-16182
▁관습	-16183
▁구름	-16184
▁달걀	-16185
▁동서	-16186
▁소진	-16187
▁220	-16188
▁계정을	-16189
▁했으나	-16190
▁브라우저	-16191
▁동일하거나	-16192
▁무덤	-16193
▁약정	-16194
▁높이가	-16195
▁전문성	-16196
▁직무를	-16197
▁3,000	-16198
베르	-16199
청년	-16200
형상	-16201
화합	-16202
▁모형은	-16203
▁스트로	-16204
해주시기	-16205
▁12.	-16206
▁전달하기	-16207
민과	-16208
전용	-16209
▁돌아온	-16210
▁베를린	-16211
▁존엄	-16212
지기도	-16213
▁교대로	-16214
▁나오면	-16215
▁일본과	-16216
▁제기된	-16217
▁구축하고	-16218
▁꽉	-16219
art	-16220
식에는	-16221
▁개념의	-16222
▁달러의	-16223
▁조항을	-16224
▁채널에	-16225
(123)	-16226
▁디자인은	-16227
▁함유되어	-16228
로로	-16229
우를	-16230
▁대회를	-16231
▁장난감	-16232
▁전문가의	-16233
▁조율	-16234
▁화산	-16235
부에는	-16236
▁가지가	-16237
▁일부의	-16238
▁클러치	-16239
▁표현이	-16240
▁형식을	-16241
▁메시지는	-16242
▁교란	-16243
▁에코	-16244
▁여건	-16245
▁고민이	-16246
▁대안을	-16247
▁등록을	-16248
▁소비가	-16249
▁전극들	-16250
▁고품질의	-16251
▁방탄소년	-16252
▁보험계약	-16253
ie	-16254
사한	-16255
▁비수	-16256
▁함유한	-16257
▁요소들을	-16258
▁데이터베이스에	-16259
▁닥	-16260
훈이	-16261
ers	-16262
▁온천	-16263
▁사업장	-16264
▁정규직	-16265
▁발생하여	-16266
▁처리하여	-16267
▁포함되었다	-16268
EB	-16269
준이	-16270
화나	-16271
▁발라	-16272
자마자	-16273
▁윤리적	-16274
▁증세를	-16275
▁보장하기	-16276
원도	-16277
호와	-16278
▁부여할	-16279
▁아시아나	-16280
▁셀룰로오스	-16281
▁엽	-16282
▁다큐	-16283
▁감소와	-16284
▁학습의	-16285
▁그것들을	-16286
▁말합니다	-16287
▁하우징에	-16288
산소	-16289
▁보며	-16290
방식을	-16291
▁파일럿	-16292
우의	-16293
문제를	-16294
▁경제학	-16295
▁구비할	-16296
▁때문일	-16297
▁비선형	-16298
▁힘들다	-16299
▁공급한다	-16300
▁활동하고	-16301
▁AD	-16302
▁고농	-16303
▁이다	-16304
공간을	-16305
적어도	-16306
▁제안된	-16307
▁촉진하는	-16308
인들	-16309
▁강서	-16310
▁암의	-16311
센터에	-16312
▁도매가는	-16313
▁보장합니다	-16314
▁스마트폰을	-16315
▁연락드리겠습니다	-16316
▁구경	-16317
▁김재	-16318
▁자녀를	-16319
지역에서	-16320
공예	-16321
맛이	-16322
지노	-16323
▁배를	-16324
▁평야	-16325
▁커맨드	-16326
▁바른미래	-16327
로스	-16328
매수	-16329
업은	-16330
위반	-16331
▁셀을	-16332
▁염을	-16333
▁일과	-16334
▁반영할	-16335
▁가파	-16336
▁접어들	-16337
▁경합	-16338
▁함량을	-16339
▁지적이다	-16340
리안	-16341
▁구직	-16342
▁변제	-16343
기간은	-16344
(204)	-16345
RNA	-16346
▁관악	-16347
▁둔화	-16348
▁봉합	-16349
▁일도	-16350
▁국내의	-16351
▁변환기	-16352
▁불순물	-16353
▁없이도	-16354
▁정의할	-16355
▁도와드리겠습니다	-16356
추는	-16357
▁지는	-16358
▁해설	-16359
▁가져가	-16360
▁건전한	-16361
▁수익률	-16362
▁검출한다	-16363
▁경쟁력이	-16364
▁부문에서	-16365
▁활성화에	-16366
제주	-16367
징수	-16368
▁채식	-16369
▁홍수	-16370
▁토트넘	-16371
▁구비되어	-16372
두는	-16373
▁급등	-16374
▁재조합	-16375
(270)	-16376
▁시작되는	-16377
▁매진	-16378
▁주연	-16379
▁동남아시아	-16380
▁배임	-16381
▁부작용을	-16382
▁형성하여	-16383
▁수신하도록	-16384
▁부러	-16385
▁공급원	-16386
▁분들은	-16387
▁우울증	-16388
▁플로우	-16389
▁부담하는	-16390
▁생각했다	-16391
▁고리형	-16392
▁모터를	-16393
▁순서를	-16394
시지	-16395
현장	-16396
▁기성	-16397
▁톱니	-16398
▁피어	-16399
▁괜찮아	-16400
▁용매를	-16401
▁지방간	-16402
에서와	-16403
▁일정에	-16404
▁힘들어	-16405
▁확인되지	-16406
스마	-16407
▁엇갈	-16408
▁이용에	-16409
▁자연의	-16410
▁전략은	-16411
▁크랭크	-16412
▁알아보기	-16413
ax	-16414
요법	-16415
협동	-16416
▁멜라	-16417
▁빛의	-16418
▁진폭	-16419
상태에	-16420
▁단체가	-16421
▁주의가	-16422
▁금지하는	-16423
▁내구성을	-16424
▁식별자를	-16425
▁감소시키기	-16426
▁감속	-16427
▁철학	-16428
▁피치	-16429
▁무역전쟁	-16430
부전	-16431
첨단	-16432
값으로	-16433
▁가정한다	-16434
공기	-16435
▁동성	-16436
▁리포	-16437
▁몰딩	-16438
▁뷰티	-16439
기관인	-16440
▁얘기다	-16441
결의	-16442
라를	-16443
스텐	-16444
▁구릉	-16445
▁마실	-16446
▁시골	-16447
▁영위	-16448
▁만나서	-16449
▁이점이	-16450
▁태어나	-16451
▁협약을	-16452
▁않더라도	-16453
▁훔	-16454
대행	-16455
▁아트	-16456
▁팀에	-16457
▁국가적	-16458
▁효율적	-16459
(710)	-16460
NR	-16461
▁5.	-16462
▁농구	-16463
▁시티	-16464
ment	-16465
▁받으며	-16466
▁주말에	-16467
▁되었다고	-16468
▁함유한다	-16469
PR	-16470
pe	-16471
것이	-16472
나고	-16473
열에	-16474
공동체	-16475
▁가정용	-16476
▁만족도를	-16477
▁일상적인	-16478
▁일정하게	-16479
▁쿠바	-16480
▁세상에	-16481
▁프레임은	-16482
▁MC	-16483
▁빼앗	-16484
▁전진	-16485
▁고양이	-16486
▁그리드	-16487
▁변환된	-16488
체육관광	-16489
▁프랜차이즈	-16490
.”	-16491
▁넉	-16492
▁비극	-16493
▁신앙	-16494
▁CSR	-16495
▁둘레에	-16496
▁신뢰도	-16497
▁신속히	-16498
▁취하는	-16499
▁대통령을	-16500
▁발견되지	-16501
▁지불해야	-16502
비율	-16503
▁이원	-16504
▁창설	-16505
▁해고	-16506
사업이	-16507
▁싶다면	-16508
▁유지될	-16509
▁무관하게	-16510
▁도의	-16511
▁부모가	-16512
▁사이로	-16513
▁손님이	-16514
적으로도	-16515
북부	-16516
▁낭비	-16517
하였기	-16518
학습을	-16519
▁	-16520
이	-16521
다	-16522
.	-16523
는	-16524
에	-16525
의	-16526
하	-16527
"	-16528
을	-16529
가	-16530
로	-16531
한	-16532
기	-16533
지	-16534
,	-16535
고	-16536
를	-16537
수	-16538
서	-16539
있	-16540
은	-16541
제	-16542
사	-16543
도	-16544
시	-16545
1	-16546
정	-16547
인	-16548
상	-16549
해	-16550
으	-16551
자	-16552
어	-16553
대	-16554
부	-16555
리	-16556
0	-16557
적	-16558
과	-16559
전	-16560
성	-16561
2	-16562
니	-16563
스	-16564
)	-16565
(	-16566
장	-16567
보	-16568
나	-16569
구	-16570
들	-16571
용	-16572
요	-16573
위	-16574
여	-16575
일	-16576
아	-16577
되	-16578
라	-16579
주	-16580
그	-16581
것	-16582
할	-16583
공	-16584
면	-16585
된	-16586
치	-16587
관	-16588
소	-16589
원	-16590
게	-16591
조	-16592
동	-16593
경	-16594
유	-16595
화	-16596
비	-16597
국	-16598
신	-16599
와	-16600
연	-16601
중	-16602
계	-16603
터	-16604
방	-16605
트	-16606
우	-16607
분	-16608
3	-16609
만	-16610
단	-16611
내	-16612
체	-16613
개	-16614
발	-16615
문	-16616
세	-16617
드	-16618
회	-16619
생	-16620
실	-16621
모	-16622
선	-16623
재	-16624
습	-16625
미	-16626
했	-16627
진	-16628
행	-16629
A	-16630
명	-16631
간	-16632
입	-16633
합	-16634
산	-16635
통	-16636
업	-16637
함	-16638
포	-16639
결	-16640
물	-16641
및	-16642
거	-16643
5	-16644
안	-16645
영	-16646
등	-16647
법	-16648
형	-16649
무	-16650
4	-16651
데	-16652
식	-16653
마	-16654
교	-16655
저	-16656
러	-16657
학	-16658
오	-16659
출	-16660
당	-16661
각	-16662
력	-16663
역	-16664
반	-16665
본	-16666
금	-16667
었	-16668
차	-16669
며	-16670
프	-16671
바	-16672
호	-16673
야	-16674
예	-16675
작	-16676
감	-16677
표	-16678
운	-16679
또	-16680
년	-16681
양	-16682
능	-16683
설	-16684
6	-16685
레	-16686
'	-16687
환	-16688
록	-16689
증	-16690
배	-16691
음	-16692
크	-16693
후	-16694
매	-16695
속	-16696
질	-16697
9	-16698
따	-16699
않	-16700
료	-16701
타	-16702
건	-16703
려	-16704
B	-16705
점	-16706
향	-16707
품	-16708
직	-16709
현	-16710
때	-16711
변	-16712
확	-16713
판	-16714
강	-16715
더	-16716
특	-16717
심	-16718
8	-16719
임	-16720
없	-16721
였	-16722
디	-16723
7	-16724
까	-16725
될	-16726
파	-16727
른	-16728
외	-16729
C	-16730
추	-16731
약	-16732
히	-16733
피	-16734
말	-16735
처	-16736
두	-16737
래	-16738
최	-16739
르	-16740
종	-16741
필	-16742
복	-16743
태	-16744
같	-16745
청	-16746
민	-16747
준	-16748
급	-16749
?	-16750
접	-16751
활	-16752
석	-16753
광	-16754
노	-16755
불	-16756
량	-16757
알	-16758
달	-16759
측	-16760
열	-16761
-	-16762
플	-16763
권	-16764
항	-16765
코	-16766
받	-16767
F	-16768
련	-16769
절	-16770
평	-16771
S	-16772
근	-16773
술	-16774
초	-16775
난	-16776
목	-16777
송	-16778
별	-16779
험	-16780
집	-16781
번	-16782
검	-16783
격	-16784
메	-16785
루	-16786
월	-16787
많	-16788
a	-16789
버	-16790
키	-16791
규	-16792
남	-16793
네	-16794
축	-16795
온	-16796
류	-16797
투	-16798
e	-16799
응	-16800
립	-16801
효	-16802
브	-16803
I	-16804
육	-16805
·	-16806
층	-16807
%	-16808
P	-16809
편	-16810
토	-16811
았	-16812
병	-16813
D	-16814
높	-16815
극	-16816
람	-16817
T	-16818
카	-16819
천	-16820
택	-16821
i	-16822
테	-16823
던	-16824
담	-16825
액	-16826
착	-16827
>	-16828
겠	-16829
책	-16830
너	-16831
든	-16832
참	-16833
존	-16834
R	-16835
패	-16836
율	-16837
독	-16838
희	-16839
린	-16840
압	-16841
m	-16842
울	-16843
께	-16844
취	-16845
좋	-16846
n	-16847
북	-16848
올	-16849
채	-16850
협	-16851
날	-16852
염	-16853
M	-16854
템	-16855
E	-16856
박	-16857
군	-16858
워	-16859
객	-16860
o	-16861
론	-16862
충	-16863
티	-16864
커	-16865
손	-16866
t	-16867
션	-16868
색	-16869
언	-16870
족	-16871
령	-16872
막	-16873
승	-16874
새	-16875
r	-16876
황	-16877
O	-16878
블	-16879
L	-16880
갖	-16881
범	-16882
페	-16883
순	-16884
름	-16885
징	-16886
득	-16887
망	-16888
N	-16889
살	-16890
케	-16891
센	-16892
됐	-16893
억	-16894
런	-16895
링	-16896
획	-16897
견	-16898
악	-16899
못	-16900
길	-16901
총	-16902
베	-16903
탄	-16904
애	-16905
완	-16906
창	-16907
볼	-16908
귀	-16909
백	-16910
란	-16911
움	-16912
맞	-16913
c	-16914
l	-16915
례	-16916
G	-16917
침	-16918
김	-16919
클	-16920
락	-16921
줄	-16922
림	-16923
돌	-16924
s	-16925
져	-16926
럼	-16927
늘	-16928
즈	-16929
써	-16930
찰	-16931
률	-16932
균	-16933
머	-16934
‘	-16935
잘	-16936
H	-16937
/	-16938
농	-16939
걸	-16940
밝	-16941
앞	-16942
폐	-16943
졌	-16944
널	-16945
익	-16946
친	-16947
융	-16948
’	-16949
콘	-16950
밀	-16951
논	-16952
폭	-16953
V	-16954
값	-16955
느	-16956
암	-16957
촉	-16958
쪽	-16959
허	-16960
곳	-16961
벌	-16962
님	-16963
“	-16964
큰	-16965
K	-16966
램	-16967
랑	-16968
씨	-16969
렇	-16970
릴	-16971
누	-16972
팅	-16973
랜	-16974
싶	-16975
혼	-16976
글	-16977
골	-16978
왔	-16979
쟁	-16980
U	-16981
엔	-16982
퍼	-16983
철	-16984
츠	-16985
찾	-16986
”	-16987
g	-16988
갈	-16989
혈	-16990
b	-16991
났	-16992
;	-16993
먼	-16994
탈	-16995
혔	-16996
p	-16997
돼	-16998
잡	-16999
낮	-17000
봉	-17001
d	-17002
흡	-17003
컨	-17004
얼	-17005
째	-17006
먹	-17007
답	-17008
팀	-17009
됩	-17010
폴	-17011
탁	-17012
삼	-17013
텐	-17014
럽	-17015
겨	-17016
쳐	-17017
벽	-17018
슬	-17019
킬	-17020
긴	-17021
뒤	-17022
u	-17023
빠	-17024
턴	-17025
념	-17026
렌	-17027
풍	-17028
녀	-17029
셔	-17030
델	-17031
얻	-17032
섬	-17033
컴	-17034
뿐	-17035
웨	-17036
핵	-17037
곡	-17038
캐	-17039
휴	-17040
즉	-17041
떤	-17042
죄	-17043
넘	-17044
칙	-17045
혁	-17046
룹	-17047
뉴	-17048
냉	-17049
힘	-17050
싱	-17051
~	-17052
쇄	-17053
셀	-17054
켜	-17055
좌	-17056
납	-17057
므	-17058
듈	-17059
십	-17060
몇	-17061
몰	-17062
잠	-17063
죠	-17064
W	-17065
딩	-17066
략	-17067
렸	-17068
둘	-17069
혹	-17070
쉽	-17071
킨	-17072
첫	-17073
끝	-17074
눈	-17075
칭	-17076
엄	-17077
핑	-17078
퓨	-17079
닌	-17080
h	-17081
벤	-17082
떻	-17083
랍	-17084
앙	-17085
굴	-17086
빈	-17087
롤	-17088
놓	-17089
∼	-17090
욱	-17091
쓰	-17092
맛	-17093
홍	-17094
즐	-17095
숙	-17096
닛	-17097
낸	-17098
k	-17099
큼	-17100
끼	-17101
헤	-17102
텔	-17103
흥	-17104
셨	-17105
벨	-17106
헌	-17107
짜	-17108
롯	-17109
흐	-17110
밖	-17111
덕	-17112
찬	-17113
퇴	-17114
좀	-17115
폰	-17116
털	-17117
픽	-17118
홈	-17119
첨	-17120
펴	-17121
y	-17122
핀	-17123
맥	-17124
떠	-17125
혀	-17126
척	-17127
엇	-17128
!	-17129
몸	-17130
떨	-17131
놀	-17132
왜	-17133
윤	-17134
뢰	-17135
홀	-17136
즘	-17137
틀	-17138
욕	-17139
풀	-17140
훈	-17141
넷	-17142
갑	-17143
X	-17144
f	-17145
잔	-17146
콜	-17147
칼	-17148
탕	-17149
촬	-17150
:	-17151
렵	-17152
붙	-17153
칠	-17154
왕	-17155
팔	-17156
궁	-17157
젝	-17158
꾸	-17159
돈	-17160
롭	-17161
닝	-17162
휘	-17163
폼	-17164
릭	-17165
닥	-17166
싸	-17167
킹	-17168
랫	-17169
옥	-17170
봐	-17171
쉬	-17172
냐	-17173
틱	-17174
컬	-17175
죽	-17176
탐	-17177
혜	-17178
틸	-17179
섭	-17180
녕	-17181
듯	-17182
엘	-17183
슈	-17184
솔	-17185
텍	-17186
팬	-17187
삶	-17188
닐	-17189
밸	-17190
빨	-17191
넣	-17192
냈	-17193
웃	-17194
탑	-17195
끌	-17196
녹	-17197
렬	-17198
깊	-17199
뜻	-17200
춤	-17201
°	-17202
멀	-17203
웹	-17204
삽	-17205
v	-17206
샘	-17207
쿠	-17208
갔	-17209
긍	-17210
괴	-17211
튜	-17212
x	-17213
깨	-17214
푸	-17215
쇼	-17216
힌	-17217
씀	-17218
넓	-17219
쌍	-17220
낙	-17221
둔	-17222
렴	-17223
멍	-17224
잉	-17225
튼	-17226
숨	-17227
뤄	-17228
뇌	-17229
곤	-17230
뭐	-17231
릿	-17232
슨	-17233
뛰	-17234
펜	-17235
켓	-17236
챔	-17237
봤	-17238
겁	-17239
졸	-17240
뇨	-17241
낼	-17242
잖	-17243
촌	-17244
됨	-17245
즌	-17246
뷰	-17247
짐	-17248
랙	-17249
빌	-17250
펀	-17251
씩	-17252
춘	-17253
봇	-17254
빛	-17255
맹	-17256
흔	-17257
렉	-17258
셈	-17259
톤	-17260
찍	-17261
<	-17262
쳤	-17263
빔	-17264
w	-17265
냥	-17266
삭	-17267
읽	-17268
늄	-17269
캠	-17270
펼	-17271
멘	-17272
밍	-17273
랐	-17274
]	-17275
꽃	-17276
맡	-17277
샤	-17278
[	-17279
덮	-17280
얘	-17281
웠	-17282
곧	-17283
겪	-17284
빙	-17285
뜨	-17286
믿	-17287
밤	-17288
럭	-17289
벗	-17290
캡	-17291
J	-17292
겼	-17293
춰	-17294
콩	-17295
셋	-17296
맨	-17297
Y	-17298
펌	-17299
찮	-17300
뮤	-17301
걱	-17302
켰	-17303
앱	-17304
+	-17305
꼭	-17306
꺼	-17307
끄	-17308
괜	-17309
「	-17310
」	-17311
늦	-17312
밥	-17313
틴	-17314
넥	-17315
혐	-17316
둥	-17317
Z	-17318
컵	-17319
Q	-17320
믹	-17321
멸	-17322
괄	-17323
핸	-17324
칩	-17325
짓	-17326
팩	-17327
탱	-17328
봄	-17329
씬	-17330
옵	-17331
줍	-17332
꿈	-17333
묘	-17334
슷	-17335
옷	-17336
섰	-17337
젊	-17338
킷	-17339
덧	-17340
팽	-17341
흘	-17342
겐	-17343
줘	-17344
훨	-17345
짧	-17346
넌	-17347
셜	-17348
럴	-17349
붕	-17350
젠	-17351
듣	-17352
벡	-17353
몬	-17354
덜	-17355
캔	-17356
칸	-17357
뒷	-17358
낌	-17359
빅	-17360
잇	-17361
낭	-17362
μ	-17363
첩	-17364
큐	-17365
랩	-17366
섹	-17367
룰	-17368
횡	-17369
z	-17370
덴	-17371
픈	-17372
앉	-17373
뚜	-17374
밴	-17375
킴	-17376
쇠	-17377
펄	-17378
윈	-17379
땅	-17380
녁	-17381
톱	-17382
륨	-17383
잃	-17384
옮	-17385
짝	-17386
깔	-17387
슐	-17388
끊	-17389
옆	-17390
&	-17391
흑	-17392
딸	-17393
맵	-17394
멤	-17395
랭	-17396
듭	-17397
싼	-17398
섯	-17399
쁘	-17400
돕	-17401
헬	-17402
닫	-17403
꼽	-17404
밑	-17405
젤	-17406
곱	-17407
끈	-17408
륙	-17409
읍	-17410
쌓	-17411
쌀	-17412
딱	-17413
빼	-17414
묻	-17415
쯤	-17416
릉	-17417
겟	-17418
쾌	-17419
멋	-17420
끔	-17421
찌	-17422
겸	-17423
_	-17424
덤	-17425
옛	-17426
콤	-17427
룸	-17428
냄	-17429
렀	-17430
앤	-17431
겹	-17432
묵	-17433
엑	-17434
맺	-17435
=	-17436
엽	-17437
슘	-17438
힐	-17439
흉	-17440
뮬	-17441
줬	-17442
뱅	-17443
벼	-17444
갱	-17445
닉	-17446
뿌	-17447
듀	-17448
왼	-17449
퀴	-17450
휠	-17451
쓸	-17452
숫	-17453
몽	-17454
톡	-17455
좁	-17456
뀌	-17457
궤	-17458
펙	-17459
훌	-17460
웅	-17461
닙	-17462
쁜	-17463
룬	-17464
뼈	-17465
꼬	-17466
닭	-17467
`	-17468
훼	-17469
롱	-17470
껴	-17471
숲	-17472
튬	-17473
곽	-17474
쥐	-17475
딜	-17476
냅	-17477
똑	-17478
굉	-17479
횟	-17480
갤	-17481
듬	-17482
륭	-17483
멜	-17484
랄	-17485
룩	-17486
퀀	-17487
펠	-17488
끗	-17489
깃	-17490
닿	-17491
깝	-17492
륜	-17493
롬	-17494
빵	-17495
얇	-17496
잊	-17497
・	-17498
덩	-17499
걷	-17500
눌	-17501
쓴	-17502
팝	-17503
멕	-17504
잎	-17505
뭔	-17506
펩	-17507
쏟	-17508
슴	-17509
덱	-17510
띠	-17511
샌	-17512
낄	-17513
딘	-17514
릅	-17515
○	-17516
빗	-17517
튀	-17518
뽑	-17519
떡	-17520
굽	-17521
룡	-17522
캘	-17523
쿼	-17524
췌	-17525
댐	-17526
멈	-17527
턱	-17528
앨	-17529
렷	-17530
얀	-17531
챙	-17532
쿄	-17533
밭	-17534
띄	-17535
α	-17536
겔	-17537
켈	-17538
빚	-17539
꽤	-17540
컷	-17541
ᆞ	-17542
깐	-17543
쿨	-17544
뷔	-17545
≤	-17546
콕	-17547
탓	-17548
꾼	-17549
섞	-17550
닷	-17551
꿀	-17552
셉	-17553
낚	-17554
묶	-17555
톨	-17556
싫	-17557
흰	-17558
헨	-17559
꼼	-17560
굳	-17561
렛	-17562
셰	-17563
칫	-17564
껑	-17565
탭	-17566
낳	-17567
q	-17568
틈	-17569
탠	-17570
곰	-17571
툴	-17572
눠	-17573
랬	-17574
댄	-17575
숭	-17576
엠	-17577
컸	-17578
잭	-17579
릎	-17580
쁩	-17581
팁	-17582
옹	-17583
꿔	-17584
껍	-17585
햅	-17586
뚝	-17587
뭘	-17588
븐	-17589
앵	-17590
웰	-17591
돋	-17592
엉	-17593
떼	-17594
앓	-17595
릇	-17596
젯	-17597
×	-17598
핫	-17599
댓	-17600
『	-17601
』	-17602
맷	-17603
볍	-17604
늬	-17605
쏠	-17606
굿	-17607
씻	-17608
깜	-17609
β	-17610
긋	-17611
갭	-17612
썼	-17613
놨	-17614
깥	-17615
볶	-17616
젖	-17617
밟	-17618
윗	-17619
텝	-17620
딥	-17621
봅	-17622
앗	-17623
끓	-17624
솟	-17625
붉	-17626
윙	-17627
j	-17628
맑	-17629
땀	-17630
캄	-17631
맙	-17632
껏	-17633
텀	-17634
췄	-17635
샷	-17636
햇	-17637
흙	-17638
줌	-17639
뒀	-17640
숍	-17641
핍	-17642
쉘	-17643
돔	-17644
뻗	-17645
넉	-17646
뚫	-17647
슛	-17648
눔	-17649
붐	-17650
샀	-17651
낀	-17652
낫	-17653
뻐	-17654
럿	-17655
렁	-17656
렘	-17657
팡	-17658
갯	-17659
닦	-17660
겉	-17661
팎	-17662
꺾	-17663
뉘	-17664
둑	-17665
뵙	-17666
놈	-17667
벅	-17668
⋅	-17669
꼈	-17670
킵	-17671
뭄	-17672
꼴	-17673
탬	-17674
핏	-17675
쨌	-17676
쏘	-17677
넬	-17678
듐	-17679
낯	-17680
댑	-17681
잦	-17682
쫓	-17683
쭤	-17684
헐	-17685
풋	-17686
*	-17687
쁨	-17688
옳	-17689
곁	-17690
엣	-17691
즙	-17692
윌	-17693
햄	-17694
쭉	-17695
앰	-17696
팜	-17697
젓	-17698
펫	-17699
붓	-17700
몫	-17701
갓	-17702
뿔	-17703
엿	-17704
킥	-17705
깎	-17706
씰	-17707
흠	-17708
픔	-17709
헥	-17710
딪	-17711
짚	-17712
쎄	-17713
츄	-17714
뭉	-17715
닮	-17716
궐	-17717
쉴	-17718
쩌	-17719
찜	-17720
솜	-17721
맘	-17722
쉐	-17723
벳	-17724
±	-17725
툼	-17726
쩔	-17727
샴	-17728
휩	-17729
둠	-17730
$	-17731
샐	-17732
깅	-17733
굵	-17734
얽	-17735
귤	-17736
늑	-17737
뀐	-17738
쩍	-17739
텅	-17740
퀸	-17741
툰	-17742
꽂	-17743
헝	-17744
녔	-17745
뻔	-17746
댁	-17747
옴	-17748
걀	-17749
짙	-17750
싹	-17751
뭇	-17752
밌	-17753
섀	-17754
솥	-17755
땜	-17756
갚	-17757
멧	-17758
렐	-17759
놔	-17760
썰	-17761
팟	-17762
썸	-17763
뜰	-17764
퀘	-17765
켄	-17766
뤘	-17767
푹	-17768
푼	-17769
첼	-17770
뱃	-17771
‧	-17772
훔	-17773
찔	-17774
퉁	-17775
둬	-17776
젼	-17777
뤼	-17778
―	-17779
꽉	-17780
콧	-17781
챗	-17782
뱀	-17783
펑	-17784
–	-17785
셸	-17786
찢	-17787
샵	-17788
딴	-17789
쉼	-17790
쪼	-17791
촘	-17792
갇	-17793
땐	-17794
힙	-17795
톰	-17796
#	-17797
넛	-17798
뜯	-17799
깁	-17800
씁	-17801
싯	-17802
긁	-17803
숯	-17804
꾀	-17805
퀄	-17806
썬	-17807
썩	-17808
씹	-17809
흩	-17810
늠	-17811
홉	-17812
탔	-17813
팥	-17814
왁	-17815
빡	-17816
θ	-17817
띤	-17818
잣	-17819
쑤	-17820
뚱	-17821
쥬	-17822
랴	-17823
쑥	-17824
삐	-17825
벚	-17826
뜬	-17827
넨	-17828
γ	-17829
밋	-17830
얹	-17831
엌	-17832
웬	-17833
뀔	-17834
휨	-17835
Δ	-17836
뜸	-17837
뎅	-17838
챌	-17839
싣	-17840
썹	-17841
큘	-17842
짠	-17843
뽐	-17844
山	-17845
꿨	-17846
폿	-17847
△	-17848
뜩	-17849
뎀	-17850
볕	-17851
쫄	-17852
쌈	-17853
둡	-17854
≦	-17855
딧	-17856
낡	-17857
씌	-17858
돗	-17859
끽	-17860
룻	-17861
콥	-17862
}	-17863
뉜	-17864
륵	-17865
헛	-17866
→	-17867
옐	-17868
헹	-17869
옌	-17870
얕	-17871
꿰	-17872
큽	-17873
～	-17874
촛	-17875
뿜	-17876
눴	-17877
콰	-17878
딤	-17879
렙	-17880
슭	-17881
꽁	-17882
엎	-17883
뽀	-17884
≥	-17885
궈	-17886
팸	-17887
{	-17888
룽	-17889
띈	-17890
뺀	-17891
쐐	-17892
컫	-17893
똥	-17894
낱	-17895
삿	-17896
뽕	-17897
춥	-17898
∙	-17899
곶	-17900
》	-17901
늙	-17902
《	-17903
쯔	-17904
팍	-17905
쁠	-17906
찼	-17907
〈	-17908
〉	-17909
텃	-17910
굶	-17911
칵	-17912
쿤	-17913
괘	-17914
숟	-17915
셧	-17916
엮	-17917
벙	-17918
λ	-17919
짱	-17920
덥	-17921
쟤	-17922
퀵	-17923
′	-17924
故	-17925
씽	-17926
켤	-17927
쥴	-17928
샹	-17929
낵	-17930
웍	-17931
땠	-17932
빴	-17933
찻	-17934
딕	-17935
뎌	-17936
뾰	-17937
걔	-17938
덟	-17939
딛	-17940
춧	-17941
쌉	-17942
웜	-17943
▲	-17944
헷	-17945
왈	-17946
왓	-17947
뮌	-17948
잼	-17949
댈	-17950
캉	-17951
찐	-17952
깡	-17953
늪	-17954
첸	-17955
퐁	-17956
얄	-17957
□	-17958
뻤	-17959
툭	-17960
뉼	-17961
홋	-17962
팠	-17963
뺏	-17964
퓰	-17965
폈	-17966
金	-17967
펭	-17968
팰	-17969
뛸	-17970
뛴	-17971
톈	-17972
숄	-17973
귄	-17974
Ω	-17975
눕	-17976
뮴	-17977
빽	-17978
옻	-17979
川	-17980
촨	-17981
李	-17982
웁	-17983
찹	-17984
땡	-17985
δ	-17986
뵐	-17987
쿡	-17988
짤	-17989
굼	-17990
뺄	-17991
숏	-17992
쥔	-17993
쭈	-17994
쫀	-17995
눗	-17996
ε	-17997
깍	-17998
몹	-17999
잤	-18000
짬	-18001
섣	-18002
뱉	-18003
밧	-18004
왠	-18005
꽝	-18006
튿	-18007
훅	-18008
껌	-18009
똘	-18010
뻣	-18011
얗	-18012
쏙	-18013
寺	-18014
짖	-18015
@	-18016
캣	-18017
왑	-18018
뿍	-18019
텨	-18020
떴	-18021
펨	-18022
쿵	-18023
꿇	-18024
뺨	-18025
랗	-18026
츰	-18027
大	-18028
댕	-18029
캅	-18030
뎁	-18031
갠	-18032
탤	-18033
Å	-18034
뻑	-18035
̊	-18036
퉈	-18037
낍	-18038
쩐	-18039
벵	-18040
깬	-18041
눅	-18042
녘	-18043
맴	-18044
댔	-18045
빕	-18046
훗	-18047
쪄	-18048
폄	-18049
쉰	-18050
쩡	-18051
숱	-18052
랏	-18053
샬	-18054
쏜	-18055
샛	-18056
냇	-18057
핌	-18058
챈	-18059
水	-18060
텁	-18061
π	-18062
|	-18063
뚤	-18064
믈	-18065
앎	-18066
〔	-18067
깻	-18068
〕	-18069
롄	-18070
뵈	-18071
펍	-18072
뫼	-18073
쌌	-18074
뗄	-18075
윷	-18076
石	-18077
랠	-18078
東	-18079
퀼	-18080
욘	-18081
σ	-18082
퍽	-18083
탰	-18084
핼	-18085
꾹	-18086
뻥	-18087
옅	-18088
φ	-18089
넸	-18090
짭	-18091
三	-18092
괌	-18093
짊	-18094
性	-18095
里	-18096
面	-18097
닳	-18098
켠	-18099
듦	-18100
뷸	-18101
돛	-18102
몄	-18103
팻	-18104
龍	-18105
궂	-18106
洞	-18107
귓	-18108
탯	-18109
챠	-18110
밈	-18111
좇	-18112
ω	-18113
맏	-18114
븀	-18115
國	-18116
文	-18117
道	-18118
샅	-18119
튕	-18120
띔	-18121
門	-18122
헵	-18123
堂	-18124
땄	-18125
中	-18126
훑	-18127
윽	-18128
齋	-18129
섕	-18130
新	-18131
쭙	-18132
셴	-18133
安	-18134
뻘	-18135
η	-18136
子	-18137
힝	-18138
®	-18139
훤	-18140
챕	-18141
헴	-18142
쏴	-18143
잿	-18144
뺐	-18145
맬	-18146
꿋	-18147
쫙	-18148
쬐	-18149
얌	-18150
얏	-18151
훙	-18152
一	-18153
칡	-18154
컥	-18155
맣	-18156
덫	-18157
◇	-18158
꺽	-18159
튤	-18160
城	-18161
푯	-18162
넋	-18163
읊	-18164
켐	-18165
쓱	-18166
틋	-18167
넴	-18168
쵸	-18169
꼰	-18170
젬	-18171
美	-18172
꿉	-18173
뗐	-18174
멱	-18175
썽	-18176
⁄	-18177
뺑	-18178
南	-18179
書	-18180
前	-18181
뇽	-18182
갛	-18183
윅	-18184
人	-18185
­	-18186
平	-18187
地	-18188
딨	-18189
멩	-18190
챘	-18191
렝	-18192
흄	-18193
〜	-18194
샨	-18195
윕	-18196
찝	-18197
틔	-18198
뎠	-18199
北	-18200
엡	-18201
氏	-18202
谷	-18203
鄭	-18204
픕	-18205
é	-18206
部	-18207
院	-18208
굣	-18209
떫	-18210
뗏	-18211
쇳	-18212
쥘	-18213
앴	-18214
ρ	-18215
林	-18216
껄	-18217
엥	-18218
궜	-18219
깼	-18220
묽	-18221
κ	-18222
넙	-18223
볐	-18224
日	-18225
天	-18226
솅	-18227
꿩	-18228
́	-18229
神	-18230
캥	-18231
튠	-18232
州	-18233
德	-18234
횃	-18235
떄	-18236
光	-18237
뉠	-18238
갸	-18239
뗀	-18240
줏	-18241
껐	-18242
볏	-18243
툇	-18244
찡	-18245
月	-18246
≧	-18247
윔	-18248
켑	-18249
海	-18250
臺	-18251
西	-18252
祠	-18253
꽈	-18254
홑	-18255
亭	-18256
長	-18257
島	-18258
톳	-18259
퓸	-18260
▽	-18261
王	-18262
쑨	-18263
깰	-18264
둣	-18265
밉	-18266
高	-18267
놉	-18268
無	-18269
꿍	-18270
松	-18271
퓌	-18272
짰	-18273
內	-18274
쿰	-18275
넝	-18276
팹	-18277
뼛	-18278
잰	-18279
基	-18280
떳	-18281
쪘	-18282
컹	-18283
τ	-18284
公	-18285
狀	-18286
숀	-18287
上	-18288
닻	-18289
촐	-18290
成	-18291
셌	-18292
뉩	-18293
땔	-18294
ᄀ	-18295
正	-18296
白	-18297
化	-18298
湖	-18299
非	-18300
뭡	-18301
욜	-18302
빤	-18303
엷	-18304
쟈	-18305
心	-18306
휜	-18307
괭	-18308
엊	-18309
學	-18310
朴	-18311
뀝	-18312
녜	-18313
江	-18314
윳	-18315
잽	-18316
휼	-18317
•	-18318
Φ	-18319
앳	-18320
甲	-18321
뷴	-18322
쐈	-18323
義	-18324
쾰	-18325
힉	-18326
雲	-18327
땋	-18328
슝	-18329
퀜	-18330
솎	-18331
古	-18332
對	-18333
≪	-18334
뮐	-18335
≫	-18336
明	-18337
體	-18338
−	-18339
小	-18340
法	-18341
띨	-18342
텡	-18343
岩	-18344
相	-18345
쐬	-18346
生	-18347
峰	-18348
近	-18349
ᄃ	-18350
流	-18351
텼	-18352
田	-18353
韓	-18354
馬	-18355
花	-18356
元	-18357
陽	-18358
펐	-18359
멎	-18360
빻	-18361
村	-18362
碑	-18363
귈	-18364
캇	-18365
놋	-18366
탉	-18367
反	-18368
家	-18369
形	-18370
겅	-18371
볜	-18372
χ	-18373
а	-18374
☆	-18375
習	-18376
主	-18377
佛	-18378
木	-18379
맸	-18380
봬	-18381
樂	-18382
路	-18383
쩜	-18384
下	-18385
方	-18386
華	-18387
記	-18388
쫑	-18389
聖	-18390
갉	-18391
띌	-18392
電	-18393
튈	-18394
庵	-18395
社	-18396
聯	-18397
뀜	-18398
됬	-18399
外	-18400
崔	-18401
舍	-18402
핥	-18403
仁	-18404
全	-18405
溪	-18406
숴	-18407
後	-18408
옇	-18409
師	-18410
氣	-18411
柳	-18412
樹	-18413
섶	-18414
콴	-18415
о	-18416
九	-18417
댜	-18418
像	-18419
宗	-18420
河	-18421
祭	-18422
뒹	-18423
좡	-18424
텄	-18425
헉	-18426
е	-18427
巖	-18428
年	-18429
興	-18430
꼿	-18431
훠	-18432
ᄆ	-18433
通	-18434
忠	-18435
兩	-18436
쿱	-18437
˃	-18438
行	-18439
곗	-18440
뮈	-18441
之	-18442
母	-18443
꽹	-18444
쳄	-18445
不	-18446
軍	-18447
끕	-18448
쑹	-18449
폽	-18450
橋	-18451
蓮	-18452
詩	-18453
賢	-18454
靑	-18455
쳇	-18456
本	-18457
端	-18458
뵌	-18459
漢	-18460
線	-18461
и	-18462
世	-18463
先	-18464
周	-18465
板	-18466
늉	-18467
˂	-18468
—	-18469
京	-18470
孝	-18471
時	-18472
五	-18473
宋	-18474
寶	-18475
鳳	-18476
꼐	-18477
ᄋ	-18478
♭	-18479
老	-18480
뭍	-18481
셍	-18482
√	-18483
긱	-18484
넵	-18485
푀	-18486
р	-18487
士	-18488
市	-18489
立	-18490
頭	-18491
◎	-18492
뼉	-18493
쏭	-18494
張	-18495
民	-18496
物	-18497
風	-18498
쌤	-18499
슁	-18500
會	-18501
四	-18502
泉	-18503
鶴	-18504
八	-18505
믐	-18506
ᄂ	-18507
同	-18508
띕	-18509
잴	-18510
캬	-18511
쾅	-18512
^	-18513
Σ	-18514
在	-18515
定	-18516
浦	-18517
뇰	-18518
쌩	-18519
웸	-18520
튄	-18521
겜	-18522
景	-18523
申	-18524
禮	-18525
黃	-18526
뮨	-18527
二	-18528
場	-18529
室	-18530
材	-18531
玉	-18532
禪	-18533
샥	-18534
原	-18535
口	-18536
愛	-18537
柱	-18538
武	-18539
淸	-18540
竹	-18541
뜹	-18542
뵀	-18543
웡	-18544
ν	-18545
火	-18546
띵	-18547
т	-18548
ä	-18549
和	-18550
沙	-18551
쨍	-18552
乙	-18553
土	-18554
官	-18555
發	-18556
仙	-18557
福	-18558
舊	-18559
겊	-18560
н	-18561
所	-18562
空	-18563
솝	-18564
텟	-18565
出	-18566
萬	-18567
鄕	-18568
찧	-18569
ö	-18570
●	-18571
圖	-18572
省	-18573
知	-18574
뻬	-18575
숑	-18576
с	-18577
合	-18578
校	-18579
永	-18580
茶	-18581
멥	-18582
슥	-18583
촤	-18584
▼	-18585
多	-18586
射	-18587
趙	-18588
遼	-18589
뼘	-18590
솽	-18591
÷	-18592
度	-18593
源	-18594
重	-18595
鎭	-18596
콸	-18597
井	-18598
쇽	-18599
分	-18600
祖	-18601
動	-18602
к	-18603
十	-18604
開	-18605
集	-18606
≡	-18607
孔	-18608
뱌	-18609
尹	-18610
廣	-18611
朝	-18612
樓	-18613
節	-18614
精	-18615
帶	-18616
池	-18617
自	-18618
빳	-18619
─	-18620
信	-18621
壇	-18622
孫	-18623
春	-18624
權	-18625
異	-18626
英	-18627
草	-18628
끙	-18629
츨	-18630
丁	-18631
事	-18632
史	-18633
羅	-18634
者	-18635
離	-18636
뎃	-18637
룀	-18638
멉	-18639
쭐	-18640
홧	-18641
修	-18642
印	-18643
府	-18644
晋	-18645
殿	-18646
ü	-18647
坪	-18648
뢴	-18649
쉑	-18650
쌕	-18651
쎈	-18652
∕	-18653
低	-18654
倍	-18655
善	-18656
圓	-18657
死	-18658
眞	-18659
背	-18660
魚	-18661
갬	-18662
뺌	-18663
뽁	-18664
名	-18665
岳	-18666
磁	-18667
龜	-18668
뎬	-18669
얍	-18670
君	-18671
夜	-18672
洪	-18673
琴	-18674
身	-18675
遺	-18676
뭣	-18677
力	-18678
數	-18679
的	-18680
都	-18681
靈	-18682
飛	-18683
꿎	-18684
냑	-18685
촙	-18686
\	-18687
器	-18688
壽	-18689
沼	-18690
牛	-18691
衣	-18692
∈	-18693
經	-18694
舞	-18695
間	-18696
뿅	-18697
짢	-18698
쾨	-18699
敎	-18700
뜀	-18701
캤	-18702
共	-18703
塔	-18704
宇	-18705
庫	-18706
昌	-18707
歌	-18708
種	-18709
륌	-18710
뭅	-18711
ʻ	-18712
女	-18713
工	-18714
曲	-18715
照	-18716
秋	-18717
縣	-18718
閣	-18719
갹	-18720
넜	-18721
혓	-18722
	-18723
太	-18724
寒	-18725
驛	-18726
ʼ	-18727
來	-18728
吉	-18729
建	-18730
慶	-18731
治	-18732
親	-18733
첵	-18734
	-18735
ᅳ	-18736
型	-18737
墓	-18738
쉿	-18739
욤	-18740
읏	-18741
≠	-18742
七	-18743
富	-18744
常	-18745
敬	-18746
烈	-18747
理	-18748
細	-18749
遊	-18750
郡	-18751
덖	-18752
씸	-18753
쟀	-18754
캑	-18755
퉜	-18756
入	-18757
字	-18758
守	-18759
慕	-18760
液	-18761
私	-18762
藏	-18763
誌	-18764
낟	-18765
멓	-18766
삯	-18767
윰	-18768
園	-18769
實	-18770
寧	-18771
徐	-18772
淵	-18773
球	-18774
直	-18775
轉	-18776
野	-18777
깽	-18778
쫒	-18779
£	-18780
̇	-18781
保	-18782
壓	-18783
持	-18784
政	-18785
有	-18786
極	-18787
畵	-18788
論	-18789
遠	-18790
錄	-18791
ᄅ	-18792
代	-18793
使	-18794
延	-18795
星	-18796
植	-18797
虎	-18798
觀	-18799
質	-18800
錦	-18801
陵	-18802
괏	-18803
쟝	-18804
á	-18805
ᄒ	-18806
作	-18807
具	-18808
冠	-18809
底	-18810
用	-18811
群	-18812
耐	-18813
臣	-18814
設	-18815
껀	-18816
쭝	-18817
加	-18818
峴	-18819
廟	-18820
廡	-18821
徑	-18822
案	-18823
溫	-18824
燮	-18825
環	-18826
結	-18827
起	-18828
館	-18829
곪	-18830
휙	-18831
ζ	-18832
∞	-18833
〮	-18834
倉	-18835
命	-18836
好	-18837
斗	-18838
望	-18839
止	-18840
쩝	-18841
в	-18842
▷	-18843
典	-18844
半	-18845
吳	-18846
契	-18847
式	-18848
應	-18849
濟	-18850
隱	-18851
音	-18852
똠	-18853
쇤	-18854
∆	-18855
☎	-18856
位	-18857
傳	-18858
尙	-18859
座	-18860
片	-18861
突	-18862
管	-18863
號	-18864
連	-18865
達	-18866
갗	-18867
껫	-18868
삑	-18869
삵	-18870
튐	-18871
司	-18872
壁	-18873
波	-18874
津	-18875
父	-18876
素	-18877
養	-18878
꽌	-18879
섐	-18880
욥	-18881
햐	-18882
享	-18883
奉	-18884
姜	-18885
層	-18886
崇	-18887
廳	-18888
戰	-18889
梁	-18890
油	-18891
脫	-18892
臨	-18893
造	-18894
香	-18895
	-18896
利	-18897
嶺	-18898
期	-18899
潭	-18900
色	-18901
蘇	-18902
解	-18903
食	-18904
낑	-18905
돝	-18906
먀	-18907
쩨	-18908
僧	-18909
回	-18910
址	-18911
將	-18912
房	-18913
銅	-18914
雨	-18915
쥼	-18916
츤	-18917
킁	-18918
í	-18919
▒	-18920
可	-18921
報	-18922
峯	-18923
業	-18924
象	-18925
魯	-18926
뙤	-18927
랖	-18928
렜	-18929
쨋	-18930
휑	-18931
ø	-18932
◁	-18933
】	-18934
儒	-18935
宣	-18936
宮	-18937
果	-18938
梅	-18939
灣	-18940
界	-18941
目	-18942
移	-18943
粒	-18944
넒	-18945
쌔	-18946
풂	-18947
【	-18948
凹	-18949
品	-18950
国	-18951
封	-18952
復	-18953
智	-18954
良	-18955
輿	-18956
邑	-18957
郞	-18958
雪	-18959
順	-18960
똬	-18961
‐	-18962
令	-18963
受	-18964
居	-18965
己	-18966
影	-18967
支	-18968
機	-18969
緣	-18970
臥	-18971
舟	-18972
꽥	-18973
셩	-18974
쟌	-18975
휀	-18976
Γ	-18977
ᄉ	-18978
ᅡ	-18979
夢	-18980
屋	-18981
情	-18982
普	-18983
益	-18984
祀	-18985
秀	-18986
藥	-18987
防	-18988
겋	-18989
웩	-18990
풉	-18991
夏	-18992
巨	-18993
泰	-18994
翼	-18995
肉	-18996
船	-18997
落	-18998
謙	-18999
貞	-19000
酒	-19001
묄	-19002
츌	-19003
ψ	-19004
♡	-19005
勝	-19006
夫	-19007
導	-19008
手	-19009
斷	-19010
眼	-19011
穴	-19012
覺	-19013
軒	-19014
軸	-19015
載	-19016
雙	-19017
귐	-19018
빰	-19019
л	-19020
任	-19021
孟	-19022
展	-19023
御	-19024
朱	-19025
根	-19026
浮	-19027
珠	-19028
産	-19029
着	-19030
邊	-19031
露	-19032
首	-19033
쑈	-19034
│	-19035
六	-19036
刻	-19037
區	-19038
向	-19039
如	-19040
尾	-19041
弘	-19042
氷	-19043
燈	-19044
盤	-19045
蘭	-19046
議	-19047
鳥	-19048
鷄	-19049
꾜	-19050
뜁	-19051
섦	-19052
젱	-19053
쫌	-19054
쮸	-19055
퇀	-19056
헀	-19057
ß	-19058
佳	-19059
感	-19060
憲	-19061
曺	-19062
百	-19063
維	-19064
置	-19065
許	-19066
講	-19067
車	-19068
進	-19069
項	-19070
슌	-19071
죔	-19072
■	-19073
丹	-19074
凸	-19075
別	-19076
剛	-19077
劉	-19078
床	-19079
彌	-19080
志	-19081
旌	-19082
晩	-19083
淇	-19084
溶	-19085
燒	-19086
率	-19087
筒	-19088
芝	-19089
表	-19090
負	-19091
農	-19092
阿	-19093
顯	-19094
굄	-19095
깄	-19096
깟	-19097
샜	-19098
홰	-19099
힛	-19100
	-19101
♤	-19102
俊	-19103
兵	-19104
制	-19105
勢	-19106
千	-19107
堤	-19108
强	-19109
栗	-19110
洛	-19111
淳	-19112
瑞	-19113
系	-19114
耳	-19115
致	-19116
超	-19117
選	-19118
陰	-19119
靜	-19120
點	-19121
곯	-19122
옭	-19123
죗	-19124
쿳	-19125
單	-19126
左	-19127
現	-19128
醫	-19129
量	-19130
鍾	-19131
鮮	-19132
鳴	-19133
뱁	-19134
벰	-19135
뽈	-19136
켭	-19137
툽	-19138
ᅵ	-19139
以	-19140
休	-19141
凡	-19142
味	-19143
失	-19144
尊	-19145
彦	-19146
必	-19147
戶	-19148
承	-19149
毛	-19150
沈	-19151
積	-19152
肩	-19153
葉	-19154
葬	-19155
被	-19156
角	-19157
銀	-19158
錫	-19159
骨	-19160
겄	-19161
졍	-19162
゚	-19163
博	-19164
坐	-19165
容	-19166
峙	-19167
從	-19168
思	-19169
最	-19170
楊	-19171
港	-19172
烽	-19173
爐	-19174
監	-19175
盧	-19176
紙	-19177
茂	-19178
說	-19179
輪	-19180
述	-19181
運	-19182
鐵	-19183
鹽	-19184
떵	-19185
쏨	-19186
죤	-19187
쳉	-19188
퇘	-19189
	-19190
ˊ	-19191
з	-19192
‒	-19193
◈	-19194
台	-19195
右	-19196
固	-19197
域	-19198
奎	-19199
恩	-19200
晶	-19201
派	-19202
熱	-19203
章	-19204
紫	-19205
護	-19206
變	-19207
降	-19208
雄	-19209
괸	-19210
셤	-19211
쌥	-19212
웻	-19213
흗	-19214
è	-19215
м	-19216
ᄇ	-19217
コ	-19218
亨	-19219
介	-19220
側	-19221
價	-19222
劑	-19223
始	-19224
岸	-19225
康	-19226
引	-19227
得	-19228
微	-19229
接	-19230
散	-19231
榮	-19232
珍	-19233
盆	-19234
粗	-19235
網	-19236
脈	-19237
萊	-19238
調	-19239
願	-19240
類	-19241
髻	-19242
냠	-19243
숩	-19244
쉔	-19245
Ψ	-19246
Х	-19247
伏	-19248
儀	-19249
再	-19250
參	-19251
咸	-19252
意	-19253
慧	-19254
收	-19255
料	-19256
構	-19257
童	-19258
聲	-19259
膜	-19260
製	-19261
誠	-19262
髮	-19263
齊	-19264
겡	-19265
닢	-19266
뿡	-19267
죌	-19268
[...]
